// TensorFlow Lite model for CMSIS-NN
#ifndef MODEL_H
#define MODEL_H

const unsigned char model_data[] = {
0x20, 0x00, 0x00, 0x00, 0x54, 0x46, 0x4c, 0x33, 0x00, 0x00, 0x00, 0x00, 
0x14, 0x00, 0x20, 0x00, 0x1c, 0x00, 0x18, 0x00, 0x14, 0x00, 0x10, 0x00, 
0x0c, 0x00, 0x00, 0x00, 0x08, 0x00, 0x04, 0x00, 0x14, 0x00, 0x00, 0x00, 
0x1c, 0x00, 0x00, 0x00, 0x94, 0x00, 0x00, 0x00, 0x14, 0x01, 0x00, 0x00, 
0x14, 0x1c, 0x00, 0x00, 0x24, 0x1c, 0x00, 0x00, 0x00, 0x35, 0x00, 0x00, 
0x03, 0x00, 0x00, 0x00, 0x01, 0x00, 0x00, 0x00, 0x10, 0x00, 0x00, 0x00, 
0x00, 0x00, 0x0a, 0x00, 0x10, 0x00, 0x0c, 0x00, 0x08, 0x00, 0x04, 0x00, 
0x0a, 0x00, 0x00, 0x00, 0x0c, 0x00, 0x00, 0x00, 0x1c, 0x00, 0x00, 0x00, 
0x3c, 0x00, 0x00, 0x00, 0x0f, 0x00, 0x00, 0x00, 0x73, 0x65, 0x72, 0x76, 
0x69, 0x6e, 0x67, 0x5f, 0x64, 0x65, 0x66, 0x61, 0x75, 0x6c, 0x74, 0x00, 
0x01, 0x00, 0x00, 0x00, 0x04, 0x00, 0x00, 0x00, 0x6c, 0xff, 0xff, 0xff, 
0x19, 0x00, 0x00, 0x00, 0x04, 0x00, 0x00, 0x00, 0x08, 0x00, 0x00, 0x00, 
0x6f, 0x75, 0x74, 0x70, 0x75, 0x74, 0x5f, 0x30, 0x00, 0x00, 0x00, 0x00, 
0x01, 0x00, 0x00, 0x00, 0x04, 0x00, 0x00, 0x00, 0xc2, 0xe3, 0xff, 0xff, 
0x04, 0x00, 0x00, 0x00, 0x0b, 0x00, 0x00, 0x00, 0x69, 0x6e, 0x70, 0x75, 
0x74, 0x5f, 0x6c, 0x61, 0x79, 0x65, 0x72, 0x00, 0x03, 0x00, 0x00, 0x00, 
0x5c, 0x00, 0x00, 0x00, 0x2c, 0x00, 0x00, 0x00, 0x04, 0x00, 0x00, 0x00, 
0xb8, 0xff, 0xff, 0xff, 0x1d, 0x00, 0x00, 0x00, 0x04, 0x00, 0x00, 0x00, 
0x13, 0x00, 0x00, 0x00, 0x43, 0x4f, 0x4e, 0x56, 0x45, 0x52, 0x53, 0x49, 
0x4f, 0x4e, 0x5f, 0x4d, 0x45, 0x54, 0x41, 0x44, 0x41, 0x54, 0x41, 0x00, 
0xdc, 0xff, 0xff, 0xff, 0x1c, 0x00, 0x00, 0x00, 0x04, 0x00, 0x00, 0x00, 
0x13, 0x00, 0x00, 0x00, 0x6d, 0x69, 0x6e, 0x5f, 0x72, 0x75, 0x6e, 0x74, 
0x69, 0x6d, 0x65, 0x5f, 0x76, 0x65, 0x72, 0x73, 0x69, 0x6f, 0x6e, 0x00, 
0x08, 0x00, 0x0c, 0x00, 0x08, 0x00, 0x04, 0x00, 0x08, 0x00, 0x00, 0x00, 
0x1b, 0x00, 0x00, 0x00, 0x04, 0x00, 0x00, 0x00, 0x13, 0x00, 0x00, 0x00, 
0x6d, 0x69, 0x6e, 0x5f, 0x72, 0x75, 0x6e, 0x74, 0x69, 0x6d, 0x65, 0x5f, 
0x76, 0x65, 0x72, 0x73, 0x69, 0x6f, 0x6e, 0x00, 0x1e, 0x00, 0x00, 0x00, 
0xfc, 0x1a, 0x00, 0x00, 0xf4, 0x1a, 0x00, 0x00, 0xdc, 0x1a, 0x00, 0x00, 
0xb4, 0x1a, 0x00, 0x00, 0xe4, 0x19, 0x00, 0x00, 0x54, 0x19, 0x00, 0x00, 
0x44, 0x15, 0x00, 0x00, 0x14, 0x15, 0x00, 0x00, 0xe4, 0x14, 0x00, 0x00, 
0x54, 0x14, 0x00, 0x00, 0x44, 0x02, 0x00, 0x00, 0x24, 0x02, 0x00, 0x00, 
0x04, 0x02, 0x00, 0x00, 0xb4, 0x01, 0x00, 0x00, 0x14, 0x01, 0x00, 0x00, 
0x0c, 0x01, 0x00, 0x00, 0x04, 0x01, 0x00, 0x00, 0xfc, 0x00, 0x00, 0x00, 
0xf4, 0x00, 0x00, 0x00, 0xec, 0x00, 0x00, 0x00, 0xe4, 0x00, 0x00, 0x00, 
0xdc, 0x00, 0x00, 0x00, 0xd4, 0x00, 0x00, 0x00, 0xcc, 0x00, 0x00, 0x00, 
0xc4, 0x00, 0x00, 0x00, 0xbc, 0x00, 0x00, 0x00, 0xb4, 0x00, 0x00, 0x00, 
0x94, 0x00, 0x00, 0x00, 0x74, 0x00, 0x00, 0x00, 0x04, 0x00, 0x00, 0x00, 
0xda, 0xe4, 0xff, 0xff, 0x04, 0x00, 0x00, 0x00, 0x60, 0x00, 0x00, 0x00, 
0x0c, 0x00, 0x00, 0x00, 0x08, 0x00, 0x0e, 0x00, 0x08, 0x00, 0x04, 0x00, 
0x08, 0x00, 0x00, 0x00, 0x10, 0x00, 0x00, 0x00, 0x28, 0x00, 0x00, 0x00, 
0x00, 0x00, 0x06, 0x00, 0x08, 0x00, 0x04, 0x00, 0x06, 0x00, 0x00, 0x00, 
0x04, 0x00, 0x00, 0x00, 0x01, 0x00, 0x00, 0x00, 0xeb, 0x03, 0x00, 0x00, 
0x0c, 0x00, 0x18, 0x00, 0x14, 0x00, 0x10, 0x00, 0x0c, 0x00, 0x04, 0x00, 
0x0c, 0x00, 0x00, 0x00, 0xff, 0xed, 0x3c, 0xb0, 0x16, 0xf5, 0xbd, 0x88, 
0x02, 0x00, 0x00, 0x00, 0x02, 0x00, 0x00, 0x00, 0x04, 0x00, 0x00, 0x00, 
0x06, 0x00, 0x00, 0x00, 0x32, 0x2e, 0x31, 0x39, 0x2e, 0x30, 0x00, 0x00, 
0x46, 0xe5, 0xff, 0xff, 0x04, 0x00, 0x00, 0x00, 0x10, 0x00, 0x00, 0x00, 
0x00, 0x00, 0x00, 0x00, 0x00, 0x00, 0x00, 0x00, 0x00, 0x00, 0x00, 0x00, 
0x00, 0x00, 0x00, 0x00, 0x62, 0xe5, 0xff, 0xff, 0x04, 0x00, 0x00, 0x00, 
0x10, 0x00, 0x00, 0x00, 0x31, 0x2e, 0x31, 0x34, 0x2e, 0x30, 0x00, 0x00, 
0x00, 0x00, 0x00, 0x00, 0x00, 0x00, 0x00, 0x00, 0xfc, 0xcd, 0xff, 0xff, 
0x00, 0xce, 0xff, 0xff, 0x04, 0xce, 0xff, 0xff, 0x08, 0xce, 0xff, 0xff, 
0x0c, 0xce, 0xff, 0xff, 0x10, 0xce, 0xff, 0xff, 0x14, 0xce, 0xff, 0xff, 
0x18, 0xce, 0xff, 0xff, 0x1c, 0xce, 0xff, 0xff, 0x20, 0xce, 0xff, 0xff, 
0x24, 0xce, 0xff, 0xff, 0x28, 0xce, 0xff, 0xff, 0xae, 0xe5, 0xff, 0xff, 
0x04, 0x00, 0x00, 0x00, 0x90, 0x00, 0x00, 0x00, 0xce, 0x0d, 0x3d, 0xda, 
0x81, 0x9f, 0x59, 0xe8, 0x2f, 0x6b, 0x54, 0xce, 0xb0, 0xc9, 0x81, 0xfc, 
0x1b, 0xe9, 0x1f, 0x81, 0x39, 0x3e, 0x97, 0x76, 0xa5, 0xfa, 0x35, 0x16, 
0x30, 0x65, 0x81, 0x37, 0x62, 0x3e, 0xb0, 0x62, 0xe7, 0x74, 0xe9, 0xf7, 
0x81, 0xed, 0x1a, 0xb5, 0xbf, 0x1d, 0x2d, 0x55, 0x58, 0x31, 0x78, 0x8d, 
0x81, 0xd9, 0xfb, 0xbc, 0x7f, 0x77, 0x49, 0x09, 0xc1, 0x4b, 0xb6, 0x01, 
0x81, 0x0c, 0xbd, 0x9f, 0xad, 0x14, 0x46, 0xd3, 0x8a, 0x6e, 0x62, 0x81, 
0x89, 0xde, 0xde, 0x3d, 0x47, 0xc7, 0x82, 0x81, 0x6f, 0x49, 0x44, 0x53, 
0x41, 0xb4, 0xfb, 0x3d, 0x9a, 0x56, 0x6c, 0xae, 0xdd, 0xa8, 0x7f, 0xeb, 
0xe9, 0xd2, 0x08, 0xe7, 0x95, 0x81, 0x93, 0xce, 0xb5, 0x11, 0x0e, 0x9c, 
0xe8, 0xe0, 0x81, 0xea, 0xc6, 0x37, 0x66, 0x5f, 0x7f, 0x29, 0xa6, 0xa8, 
0xf2, 0x74, 0xd5, 0xeb, 0xe5, 0xba, 0x7b, 0x7f, 0xb1, 0xab, 0xba, 0x11, 
0x7f, 0x1e, 0xa3, 0x93, 0xd0, 0x06, 0xc6, 0xe2, 0x4a, 0xe6, 0xff, 0xff, 
0x04, 0x00, 0x00, 0x00, 0x40, 0x00, 0x00, 0x00, 0x89, 0xfe, 0xff, 0xff, 
0x3e, 0xff, 0xff, 0xff, 0xaf, 0x00, 0x00, 0x00, 0xdc, 0x00, 0x00, 0x00, 
0x80, 0xfe, 0xff, 0xff, 0x22, 0x01, 0x00, 0x00, 0x05, 0xff, 0xff, 0xff, 
0xab, 0xff, 0xff, 0xff, 0xdd, 0xff, 0xff, 0xff, 0xfb, 0xfe, 0xff, 0xff, 
0xac, 0x00, 0x00, 0x00, 0x49, 0xff, 0xff, 0xff, 0x72, 0xff, 0xff, 0xff, 
0x82, 0x00, 0x00, 0x00, 0xe9, 0xfe, 0xff, 0xff, 0x8f, 0xff, 0xff, 0xff, 
0x96, 0xe6, 0xff, 0xff, 0x04, 0x00, 0x00, 0x00, 0x10, 0x00, 0x00, 0x00, 
0x76, 0x77, 0x76, 0x76, 0x77, 0x77, 0x7c, 0x79, 0x76, 0x7f, 0x79, 0x79, 
0x78, 0x7c, 0x79, 0x7d, 0xb2, 0xe6, 0xff, 0xff, 0x04, 0x00, 0x00, 0x00, 
0x10, 0x00, 0x00, 0x00, 0x71, 0x6e, 0x64, 0x9b, 0x67, 0xf5, 0xd0, 0x7f, 
0x61, 0x36, 0x35, 0x55, 0x74, 0x80, 0x5a, 0x4b, 0xce, 0xe6, 0xff, 0xff, 
0x04, 0x00, 0x00, 0x00, 0x00, 0x12, 0x00, 0x00, 0xcd, 0x23, 0x6b, 0x07, 
0xb3, 0x62, 0x98, 0xf7, 0x11, 0xeb, 0x23, 0x3f, 0x44, 0x5a, 0xdb, 0x10, 
0x48, 0x5e, 0xf1, 0xcd, 0x5a, 0x95, 0x3f, 0x70, 0xa8, 0xc3, 0x41, 0x75, 
0xdf, 0x1d, 0xfa, 0x56, 0xbf, 0x63, 0xe2, 0xec, 0x02, 0xe3, 0xc4, 0x54, 
0x12, 0x9c, 0x2c, 0xe4, 0xa7, 0x93, 0x0d, 0x24, 0xc2, 0x2a, 0xcf, 0x57, 
0x13, 0x64, 0x65, 0xdf, 0xaa, 0xf0, 0xb7, 0xb0, 0xad, 0x21, 0x46, 0xc9, 
0x3b, 0x20, 0x0e, 0x71, 0x6b, 0xac, 0x3e, 0xc8, 0xbc, 0xd5, 0x5d, 0xf2, 
0xa4, 0xd8, 0x23, 0xb7, 0x27, 0x81, 0x25, 0x17, 0xf0, 0xba, 0x6f, 0x4f, 
0x0e, 0xc1, 0x02, 0xcd, 0x72, 0xb4, 0x8d, 0x28, 0xa0, 0x6c, 0x2a, 0x9b, 
0xd6, 0x21, 0xd4, 0x8e, 0x09, 0x67, 0xb5, 0x00, 0x1e, 0x94, 0xea, 0xf3, 
0x54, 0x1e, 0x28, 0x03, 0x92, 0x7a, 0x9b, 0x69, 0xcf, 0xd9, 0x5e, 0xcb, 
0x35, 0xdc, 0xf9, 0xf0, 0xbd, 0xa6, 0x39, 0x6b, 0x02, 0x0d, 0xe3, 0xb7, 
0x3e, 0xf5, 0xa8, 0x70, 0x08, 0x1d, 0x46, 0x02, 0x99, 0x32, 0xfb, 0xb9, 
0xfd, 0x06, 0x29, 0x74, 0x58, 0x98, 0xb5, 0x69, 0xda, 0xa0, 0x5b, 0x64, 
0x1b, 0x37, 0x9e, 0x5a, 0xe2, 0xa8, 0x5b, 0xd3, 0xdc, 0x3e, 0x1d, 0x0e, 
0x8c, 0x95, 0x17, 0xee, 0x1f, 0xf7, 0xa3, 0xda, 0xfb, 0x59, 0x6c, 0x71, 
0xc6, 0x81, 0xe9, 0x13, 0xa1, 0xc3, 0x08, 0x43, 0x8f, 0x4c, 0x91, 0x16, 
0xb6, 0xa1, 0x6c, 0x3e, 0xd1, 0xb3, 0x4e, 0x38, 0xe0, 0x8f, 0x85, 0xf6, 
0x74, 0x4c, 0xdc, 0x3e, 0x92, 0x27, 0x38, 0xeb, 0x7a, 0x55, 0x1c, 0x40, 
0x62, 0x64, 0xbb, 0xfe, 0x1e, 0xb6, 0xa9, 0xd4, 0x14, 0x66, 0x95, 0xad, 
0x01, 0x10, 0xdb, 0xf8, 0x12, 0xdd, 0xd5, 0xe4, 0x4b, 0xc4, 0x46, 0x23, 
0xc6, 0x2e, 0xe9, 0x4f, 0xba, 0x6c, 0x0a, 0xc2, 0x20, 0xac, 0x4d, 0xeb, 
0x3c, 0xb2, 0x99, 0x26, 0xeb, 0xbf, 0xc5, 0xd2, 0x4e, 0x4c, 0x2c, 0xf7, 
0x0c, 0xdb, 0x33, 0x54, 0xa6, 0xf1, 0xc0, 0x59, 0xa1, 0x66, 0x13, 0x2f, 
0xfc, 0x17, 0x19, 0x93, 0xd4, 0x8c, 0xad, 0xdc, 0xb4, 0xd4, 0x2e, 0x4e, 
0x16, 0x10, 0x93, 0x96, 0x8f, 0xaf, 0x83, 0x10, 0x94, 0x93, 0xef, 0xc2, 
0x93, 0x67, 0x53, 0xbc, 0x0f, 0xb9, 0x9e, 0xc1, 0xd5, 0x8c, 0xfc, 0x11, 
0x6f, 0x2e, 0x56, 0x92, 0x0b, 0xf7, 0x48, 0x10, 0xd4, 0xca, 0x82, 0x42, 
0x25, 0x16, 0x45, 0xf0, 0x5b, 0xaa, 0x9b, 0xcd, 0x6c, 0x76, 0x46, 0x11, 
0xa6, 0xcf, 0x56, 0x08, 0x9c, 0x0c, 0x57, 0xad, 0xc1, 0x42, 0x50, 0xfe, 
0x08, 0x07, 0xf0, 0xb8, 0xe2, 0xeb, 0x93, 0x10, 0xfc, 0xab, 0x30, 0xce, 
0xc1, 0x84, 0xea, 0x75, 0xab, 0x5e, 0xc9, 0x13, 0x31, 0xcc, 0x4c, 0xcf, 
0x30, 0x1e, 0x5e, 0xa9, 0xfb, 0x07, 0x37, 0x7e, 0xdf, 0xf2, 0x04, 0x83, 
0xe0, 0xe1, 0x81, 0x72, 0x24, 0x53, 0x83, 0x5c, 0xee, 0x17, 0x18, 0x30, 
0xb1, 0x13, 0x0f, 0xd1, 0xf0, 0xe8, 0xe1, 0x9d, 0xc3, 0x05, 0xd2, 0x5e, 
0xf6, 0xdf, 0x3e, 0x03, 0x4b, 0x9c, 0x50, 0x4c, 0xc1, 0x03, 0x94, 0x49, 
0x5b, 0xbe, 0x20, 0x19, 0x33, 0xb8, 0xbf, 0x64, 0x06, 0xb0, 0xe5, 0x1b, 
0xa1, 0x93, 0x56, 0xf3, 0x47, 0xda, 0x4d, 0x57, 0xc8, 0x1b, 0x34, 0xfe, 
0xbd, 0x0f, 0x07, 0x27, 0x56, 0x4f, 0xf3, 0x3d, 0xe5, 0xea, 0x30, 0xe1, 
0xff, 0x03, 0x3c, 0xa3, 0x5a, 0x04, 0x0e, 0x4e, 0x5b, 0x05, 0x9f, 0x4a, 
0xf7, 0x97, 0x3c, 0x9f, 0x04, 0x66, 0x6a, 0xa8, 0xbd, 0x50, 0x26, 0x23, 
0xc8, 0x69, 0xe5, 0xb1, 0xa8, 0x68, 0x97, 0xb4, 0xb3, 0xa3, 0x1d, 0xbc, 
0xfe, 0xd8, 0x4d, 0xba, 0x30, 0x45, 0xf6, 0x93, 0xca, 0xbc, 0xaf, 0x27, 
0xe4, 0x40, 0xd5, 0x64, 0x6e, 0xef, 0x08, 0xa3, 0x23, 0xdd, 0x44, 0xf3, 
0xb2, 0x3b, 0x81, 0xf3, 0xca, 0x25, 0xed, 0x76, 0xf0, 0xdb, 0xcc, 0x1e, 
0xd3, 0xaa, 0x25, 0x11, 0xc7, 0x9a, 0xef, 0xc1, 0x1b, 0xd7, 0xda, 0xf7, 
0x11, 0xf7, 0x07, 0x39, 0xaf, 0x45, 0xe6, 0x9c, 0x03, 0xa1, 0x82, 0x5d, 
0x1c, 0x85, 0x46, 0x0f, 0xe4, 0xff, 0xd8, 0xb0, 0x98, 0x42, 0xaa, 0x66, 
0x50, 0xeb, 0xbc, 0x2e, 0xdc, 0x81, 0xf3, 0x32, 0xee, 0xce, 0x67, 0x00, 
0x36, 0xca, 0x1a, 0x15, 0x9c, 0xc2, 0xe7, 0x2c, 0x76, 0xc7, 0x0b, 0x26, 
0xd9, 0x29, 0xbb, 0xea, 0xd0, 0x41, 0xb1, 0xc6, 0x20, 0x56, 0x5a, 0xb8, 
0x1d, 0xd6, 0x1d, 0x61, 0xf2, 0x21, 0x71, 0x0a, 0xae, 0x35, 0xc5, 0x67, 
0xa2, 0x7b, 0x12, 0x03, 0x5a, 0x6b, 0x67, 0x23, 0x56, 0x7c, 0x43, 0x0f, 
0xcf, 0x37, 0x68, 0xd6, 0x06, 0x33, 0x63, 0x81, 0xe2, 0x19, 0xa5, 0x08, 
0xfb, 0x56, 0x70, 0x2c, 0xff, 0x76, 0xe7, 0xdb, 0xc2, 0xbe, 0xce, 0xb8, 
0xe8, 0x75, 0xa4, 0x8e, 0x5a, 0xe2, 0x16, 0xc0, 0xa6, 0x95, 0x25, 0xd2, 
0xf7, 0xd8, 0x12, 0x00, 0xac, 0x2b, 0x26, 0xa2, 0x5a, 0xa3, 0xd6, 0xc5, 
0x5b, 0x4a, 0x76, 0x06, 0xe6, 0x66, 0xe8, 0xeb, 0xa6, 0xad, 0x1f, 0xc6, 
0xa9, 0x04, 0x73, 0xb6, 0x20, 0xde, 0xb3, 0x5c, 0x2a, 0x36, 0xab, 0x23, 
0xd7, 0x34, 0x3b, 0xa6, 0x45, 0x3c, 0xe6, 0x3e, 0xe8, 0x70, 0xeb, 0x61, 
0xd1, 0x9c, 0x26, 0xc3, 0x2e, 0x48, 0x34, 0x9c, 0x4f, 0x13, 0xb7, 0xf1, 
0x10, 0x01, 0x90, 0x97, 0xe4, 0x7b, 0x2d, 0x06, 0xb1, 0x3e, 0x64, 0xea, 
0xad, 0x4f, 0xf0, 0x01, 0xb2, 0xbe, 0x42, 0xbc, 0xc5, 0x7f, 0x58, 0x30, 
0x1e, 0x11, 0x2e, 0x98, 0x31, 0xe0, 0x54, 0x95, 0xe9, 0xce, 0x9a, 0x64, 
0x18, 0x78, 0x9f, 0x28, 0x30, 0x2a, 0xc9, 0xea, 0x68, 0xaa, 0xeb, 0x41, 
0xe7, 0x33, 0xbb, 0x63, 0x0c, 0x04, 0xda, 0x29, 0xf6, 0x1c, 0xb8, 0xe4, 
0xd3, 0x29, 0xe5, 0x1c, 0xa0, 0x1e, 0x36, 0xf6, 0x0a, 0x41, 0xfc, 0xf0, 
0x94, 0x34, 0xeb, 0xe1, 0x34, 0xf4, 0x65, 0x5d, 0x8d, 0x31, 0xaf, 0xff, 
0x56, 0x6e, 0x2f, 0xec, 0xca, 0x32, 0x19, 0x5c, 0xa6, 0x39, 0x05, 0x23, 
0x35, 0xe9, 0x33, 0xd2, 0xe4, 0xeb, 0xd3, 0x93, 0x19, 0x0d, 0x17, 0xf3, 
0x4d, 0x50, 0xdc, 0xcb, 0xc5, 0x54, 0x24, 0x05, 0x14, 0xfc, 0xa5, 0x58, 
0xd0, 0x37, 0x3c, 0xab, 0xea, 0x31, 0xd5, 0x09, 0x41, 0x41, 0x40, 0x16, 
0xa4, 0x0d, 0x62, 0x0e, 0x54, 0xc1, 0x19, 0x22, 0x53, 0x8d, 0x37, 0xb9, 
0x62, 0xf2, 0xb6, 0x60, 0x01, 0xcb, 0xa5, 0x5d, 0x74, 0x84, 0xf4, 0x95, 
0xb5, 0x2c, 0xdb, 0x06, 0x1f, 0x0c, 0x94, 0xbd, 0x44, 0x91, 0xde, 0xde, 
0xcd, 0xb6, 0x62, 0xec, 0xe3, 0xfd, 0x08, 0x2c, 0x22, 0xa0, 0x00, 0xf4, 
0x67, 0xf6, 0x9a, 0xb8, 0xe3, 0x1a, 0x04, 0xc5, 0xa9, 0xdf, 0xf5, 0x38, 
0x8d, 0xf4, 0x34, 0xfd, 0xa1, 0xa5, 0x36, 0x4c, 0x60, 0xcf, 0xc7, 0xb3, 
0xa4, 0x02, 0x94, 0x57, 0xcb, 0xc4, 0x59, 0xa2, 0x66, 0xc1, 0xa0, 0x23, 
0x72, 0xc2, 0x64, 0x23, 0x69, 0x98, 0x2d, 0x02, 0xd3, 0x82, 0x94, 0x97, 
0x07, 0x18, 0xd1, 0xa7, 0x5a, 0xa4, 0xf6, 0xab, 0x45, 0x34, 0x2b, 0x33, 
0xed, 0xe2, 0x81, 0xa1, 0x56, 0xe4, 0x30, 0xf1, 0x25, 0x9d, 0xe4, 0xd7, 
0xb6, 0xf9, 0xf4, 0x18, 0xe5, 0x86, 0xf6, 0x1c, 0xa0, 0x5b, 0xa0, 0x64, 
0xce, 0x58, 0xa8, 0xe6, 0x53, 0xca, 0x0d, 0xae, 0xeb, 0xd2, 0x48, 0xa1, 
0xef, 0x1b, 0x8d, 0x9e, 0x51, 0x23, 0x6c, 0xd1, 0x03, 0x4c, 0x8a, 0x50, 
0xa2, 0x81, 0x00, 0xf8, 0x52, 0x5c, 0xda, 0x38, 0xb3, 0x91, 0xd0, 0xcf, 
0x22, 0xad, 0x9f, 0xd9, 0xe0, 0xe4, 0x38, 0xa4, 0x92, 0x3d, 0xeb, 0x87, 
0x4a, 0xfa, 0x3f, 0x24, 0x00, 0x4f, 0x92, 0x26, 0xbd, 0xcc, 0xb4, 0x30, 
0x28, 0xcb, 0x01, 0xa6, 0x20, 0x0d, 0xf9, 0x2f, 0x4d, 0x93, 0xaa, 0xd3, 
0xeb, 0x9e, 0xa4, 0x94, 0xb8, 0x77, 0xff, 0xf8, 0xe9, 0x24, 0xc4, 0x01, 
0x22, 0x2c, 0x54, 0xeb, 0xfa, 0x89, 0x97, 0x3b, 0xe8, 0x48, 0xc7, 0x0f, 
0x3e, 0x18, 0x49, 0xd1, 0x55, 0x0b, 0x0c, 0x0b, 0xeb, 0x41, 0xd4, 0xb8, 
0xa2, 0xcb, 0x18, 0x5e, 0xd0, 0xb5, 0xa2, 0xfd, 0x8f, 0xcb, 0x0d, 0xea, 
0x5f, 0x6a, 0x11, 0x00, 0x24, 0xa0, 0x86, 0xc7, 0xfa, 0x38, 0xb4, 0xc0, 
0xd5, 0x05, 0xd6, 0x31, 0x50, 0xdf, 0xe6, 0x3e, 0xc2, 0x13, 0xd6, 0x2a, 
0xe3, 0xe9, 0xba, 0xed, 0xec, 0xe4, 0xc2, 0x37, 0x21, 0x98, 0x0d, 0x73, 
0x60, 0x4a, 0x39, 0xb3, 0xe3, 0xc7, 0xd6, 0x24, 0xb8, 0x45, 0x2b, 0xe7, 
0x40, 0xd5, 0x21, 0x6c, 0x4b, 0xf1, 0x56, 0xf9, 0x34, 0x3a, 0xfe, 0xec, 
0x27, 0x08, 0x15, 0xc8, 0xed, 0xaf, 0x2a, 0xde, 0x0b, 0x7f, 0xd9, 0xd0, 
0xdd, 0xea, 0x47, 0x12, 0x55, 0xbc, 0x9d, 0x67, 0x66, 0x05, 0x52, 0x70, 
0x1b, 0xe0, 0xcb, 0xc0, 0x2f, 0x62, 0x6c, 0x93, 0xc8, 0xc8, 0x10, 0x5a, 
0x0f, 0xc8, 0x26, 0x04, 0x5a, 0xc4, 0x06, 0x9b, 0xad, 0x23, 0x98, 0xde, 
0xe0, 0x42, 0xaf, 0x27, 0x01, 0x29, 0xf3, 0xc6, 0x12, 0x39, 0x48, 0xf5, 
0x9e, 0xa0, 0x58, 0xb4, 0xdd, 0xf8, 0x93, 0x99, 0xd2, 0x42, 0x49, 0x96, 
0xd3, 0xcf, 0x4b, 0x2d, 0x32, 0xba, 0xea, 0x6f, 0x21, 0xf4, 0x16, 0x22, 
0xdc, 0xc1, 0x68, 0x72, 0x1e, 0x54, 0x6a, 0xce, 0xdb, 0x32, 0x00, 0xd3, 
0x3a, 0xb1, 0x1c, 0x6f, 0x1f, 0x70, 0x05, 0x48, 0x3d, 0xe3, 0xb4, 0xb7, 
0x55, 0xea, 0x8c, 0x4d, 0x19, 0xf5, 0xa4, 0x3e, 0xbd, 0x0a, 0x8e, 0x60, 
0xb4, 0x7b, 0x6a, 0x18, 0x96, 0x92, 0x03, 0xfe, 0x27, 0x56, 0x34, 0xc6, 
0x38, 0x0e, 0xd8, 0x1e, 0x2f, 0xe1, 0xe4, 0xc8, 0x59, 0xcb, 0x57, 0xff, 
0xba, 0x69, 0xd3, 0xbe, 0x14, 0xcc, 0xc7, 0x08, 0xb6, 0x1d, 0x5a, 0x5f, 
0x09, 0xa1, 0xce, 0xe6, 0x5d, 0x55, 0x90, 0xb4, 0xd2, 0xc5, 0x1d, 0xa8, 
0x11, 0xa3, 0x1d, 0xdb, 0x42, 0x24, 0x14, 0x2f, 0xa4, 0xf1, 0x61, 0xbc, 
0x41, 0xc0, 0xb6, 0x14, 0x96, 0xf5, 0x27, 0xe0, 0x1c, 0x90, 0x1d, 0x64, 
0xbf, 0x9d, 0x9a, 0xa0, 0x2a, 0x0c, 0x17, 0xa4, 0x3f, 0x25, 0x4a, 0x5f, 
0x4c, 0xc5, 0xee, 0xcb, 0xc2, 0xd7, 0xda, 0xbb, 0x9d, 0x19, 0x54, 0xe8, 
0x4a, 0x54, 0x04, 0x96, 0xcc, 0xeb, 0x53, 0x53, 0x60, 0xa6, 0xff, 0x10, 
0x33, 0x42, 0xb9, 0x7f, 0x0b, 0x1d, 0x5c, 0x3c, 0xab, 0xae, 0xcd, 0x56, 
0x16, 0x0c, 0x36, 0xcc, 0xe9, 0x5d, 0x6e, 0xad, 0x39, 0x6d, 0x3d, 0x3d, 
0xc8, 0xc8, 0xfc, 0x11, 0x04, 0x3e, 0xf0, 0x49, 0x49, 0xd7, 0xd2, 0x19, 
0x33, 0x67, 0x13, 0x03, 0x72, 0x64, 0x15, 0xdf, 0xb2, 0x1f, 0x56, 0x4e, 
0x64, 0x5f, 0x4f, 0xbb, 0x1d, 0x8f, 0xbf, 0x44, 0x5b, 0x0a, 0x37, 0xcc, 
0x52, 0x03, 0x0c, 0x38, 0x32, 0x68, 0x22, 0x58, 0x6c, 0xd0, 0xf1, 0x09, 
0xe5, 0x3a, 0xd1, 0xef, 0x36, 0x6e, 0xd4, 0xa4, 0xab, 0xc4, 0xa2, 0x1e, 
0xf2, 0x6d, 0x29, 0x3b, 0xa8, 0x97, 0x53, 0x63, 0xf0, 0xee, 0xe0, 0x70, 
0xae, 0x17, 0x7a, 0x46, 0xc5, 0x1d, 0xde, 0xe8, 0x0c, 0xdc, 0xa3, 0x52, 
0xb2, 0x75, 0xcd, 0xc7, 0x40, 0xe9, 0x07, 0xd0, 0xa1, 0xa0, 0x00, 0xd5, 
0x11, 0x39, 0x52, 0x16, 0x67, 0xb2, 0xbb, 0x40, 0xdc, 0x18, 0x69, 0x2d, 
0x71, 0xc4, 0x59, 0x63, 0x8d, 0x6f, 0xa3, 0x49, 0x5d, 0x48, 0xa8, 0xfb, 
0x26, 0xf7, 0x19, 0x99, 0x24, 0x02, 0xe3, 0x9f, 0x00, 0x32, 0xfb, 0x58, 
0x5c, 0xa5, 0x47, 0x7f, 0x4b, 0xd7, 0x5b, 0xb9, 0xbb, 0x05, 0x59, 0x2a, 
0xe2, 0xbb, 0x1b, 0xa7, 0xc7, 0x5a, 0xb4, 0xba, 0x26, 0xe6, 0x9a, 0xd7, 
0xa8, 0x47, 0x7b, 0xab, 0xfd, 0xce, 0xd8, 0xe6, 0x9a, 0x40, 0xba, 0x84, 
0xed, 0x84, 0x11, 0x21, 0x92, 0x3d, 0x4e, 0xa7, 0x64, 0x8e, 0xc1, 0xbd, 
0x2a, 0x5e, 0x2c, 0x28, 0x18, 0xe7, 0x9e, 0xa4, 0x0c, 0x0a, 0x8e, 0x79, 
0x55, 0xa7, 0x14, 0x52, 0xe0, 0x51, 0xa0, 0x88, 0xe7, 0xf7, 0x61, 0xd8, 
0xaf, 0x2f, 0x81, 0xaa, 0x75, 0x2e, 0x56, 0xdb, 0xe7, 0x7e, 0xde, 0x9b, 
0xe2, 0xe4, 0xda, 0xc6, 0x59, 0x3a, 0xbc, 0xe7, 0x32, 0xd5, 0x70, 0xdd, 
0x2f, 0x30, 0x38, 0x6c, 0xa3, 0x35, 0x69, 0x14, 0x23, 0x59, 0x6f, 0x1e, 
0x3f, 0x43, 0x34, 0xa1, 0x41, 0x9d, 0x08, 0xf4, 0x1f, 0x9c, 0xdb, 0x86, 
0x62, 0x9d, 0xeb, 0x4f, 0xf2, 0xfc, 0x46, 0x13, 0x4c, 0xc1, 0xe3, 0x26, 
0xe3, 0xb3, 0xc0, 0x1d, 0x8d, 0x1e, 0x8c, 0xce, 0xb9, 0xd9, 0x85, 0x9e, 
0x03, 0xd1, 0x00, 0x5b, 0x13, 0x4b, 0xf2, 0xf6, 0xda, 0x06, 0xd1, 0xc5, 
0x5b, 0x51, 0xa6, 0xf5, 0x64, 0x1d, 0xe8, 0xee, 0x55, 0x38, 0x0f, 0x1b, 
0x3c, 0xa9, 0x9e, 0xd0, 0x52, 0x63, 0x93, 0x9e, 0xad, 0xdf, 0x10, 0xfe, 
0x0e, 0x0c, 0x8b, 0xfe, 0x18, 0xb6, 0x20, 0x9e, 0x58, 0x8c, 0xb5, 0x59, 
0x56, 0xaf, 0x8f, 0x8f, 0xe6, 0x4e, 0xa9, 0x20, 0x25, 0x89, 0x4f, 0x49, 
0xbb, 0xd8, 0xa7, 0x03, 0x6b, 0xaa, 0xb4, 0x27, 0x22, 0x41, 0x8b, 0x18, 
0x4e, 0x9a, 0x98, 0x4a, 0xdf, 0xa2, 0x03, 0xfd, 0xf1, 0xd9, 0xc8, 0xda, 
0xee, 0x15, 0xd4, 0x72, 0x0b, 0x50, 0xbb, 0xd2, 0xb8, 0xeb, 0xe8, 0x49, 
0xd7, 0xb4, 0x0e, 0xdd, 0x1e, 0x06, 0x55, 0x1f, 0xa1, 0x88, 0xc1, 0xb0, 
0x2d, 0xee, 0xe4, 0x25, 0x08, 0x63, 0x3c, 0x34, 0x95, 0xda, 0xe1, 0x1e, 
0xd4, 0xf1, 0xec, 0xc0, 0x37, 0xf0, 0xb4, 0x33, 0xeb, 0xc6, 0xc7, 0xfc, 
0xb1, 0xa0, 0x5c, 0x2a, 0xc9, 0x04, 0xf2, 0xcd, 0xb6, 0x9c, 0xca, 0xef, 
0x39, 0x28, 0x6a, 0x90, 0xec, 0x62, 0xc8, 0xa2, 0x2e, 0x3c, 0x89, 0x47, 
0x46, 0x81, 0x1f, 0xc8, 0x29, 0xbb, 0x01, 0x48, 0x07, 0x2b, 0xaa, 0xc4, 
0xed, 0xbb, 0xd3, 0x11, 0x02, 0x85, 0x09, 0x0d, 0xff, 0xd2, 0xe0, 0x36, 
0x0f, 0x39, 0xf2, 0x9d, 0x3a, 0x7b, 0x1c, 0x0c, 0x65, 0xc7, 0xd6, 0x57, 
0x13, 0xb1, 0xd8, 0x62, 0xd4, 0x40, 0x2c, 0x60, 0x41, 0xc3, 0xd6, 0x19, 
0xfa, 0xb5, 0x78, 0xa7, 0xe3, 0x7f, 0x21, 0x0b, 0x6e, 0xf8, 0x93, 0x1e, 
0x59, 0x30, 0xb1, 0xa7, 0x9d, 0x10, 0xc8, 0x3b, 0x22, 0x46, 0x8d, 0x29, 
0x4d, 0x32, 0xbb, 0xe9, 0xc3, 0xd6, 0xe7, 0xa1, 0x36, 0x04, 0x61, 0xbf, 
0xcb, 0x2d, 0xab, 0x65, 0x05, 0x54, 0x19, 0x1c, 0x13, 0x2b, 0x3d, 0x38, 
0x03, 0xaf, 0xae, 0x1c, 0x74, 0xde, 0xdc, 0xd9, 0x03, 0x8e, 0xaa, 0x96, 
0xec, 0xff, 0x93, 0xee, 0x5f, 0x84, 0x5a, 0x3a, 0xe3, 0x14, 0xac, 0xc8, 
0x0f, 0x68, 0x0d, 0x82, 0x78, 0xb1, 0x8a, 0x48, 0xa7, 0xb0, 0x79, 0x05, 
0x59, 0x8a, 0x3e, 0x18, 0x6b, 0x0f, 0x84, 0x46, 0x52, 0x44, 0x59, 0xd9, 
0xd2, 0x0f, 0x93, 0xe0, 0xa4, 0xe1, 0xfe, 0xf6, 0x6b, 0x09, 0xb0, 0x4e, 
0xb6, 0x6a, 0xb1, 0x17, 0x54, 0xc4, 0xcd, 0x46, 0x6d, 0xe1, 0xdb, 0xaa, 
0x23, 0x9e, 0x0d, 0xd5, 0xf3, 0x3d, 0x6e, 0x00, 0xf1, 0x1f, 0x36, 0xd2, 
0x4f, 0xfd, 0xa6, 0xf7, 0xfa, 0xd5, 0x4f, 0x0b, 0x90, 0x40, 0x1d, 0x01, 
0x65, 0x5f, 0x9e, 0x28, 0xe0, 0xde, 0xef, 0x46, 0x3c, 0xd8, 0xc2, 0xb2, 
0x14, 0x01, 0xee, 0x6d, 0xc3, 0xb0, 0xf6, 0xd4, 0xd5, 0xb7, 0xb6, 0xb3, 
0x5f, 0x56, 0xa7, 0xba, 0xf7, 0xc8, 0x74, 0x9b, 0x07, 0x63, 0x01, 0xbc, 
0x61, 0xe6, 0xdd, 0x31, 0xfb, 0x22, 0xc3, 0x45, 0xfd, 0x65, 0xb7, 0xd7, 
0xb4, 0x7f, 0xb9, 0x32, 0xf2, 0x1e, 0x99, 0x6d, 0xa9, 0xf0, 0x53, 0xfb, 
0x06, 0xee, 0xe6, 0xda, 0x07, 0x5b, 0x3b, 0x3b, 0xa9, 0xdc, 0x34, 0xc0, 
0x14, 0xbb, 0xa2, 0xf8, 0x9f, 0x6a, 0xaa, 0x0e, 0x8f, 0xf3, 0x40, 0xf2, 
0xa4, 0x26, 0xd0, 0x07, 0x1f, 0x02, 0x08, 0xc0, 0xaf, 0xea, 0xdd, 0x94, 
0xaf, 0x5b, 0x3d, 0xeb, 0x39, 0x07, 0x48, 0x2f, 0x3b, 0x27, 0x1f, 0xfb, 
0x2b, 0xed, 0xc0, 0xb8, 0xc3, 0x3e, 0xf2, 0xdd, 0xc3, 0xad, 0xad, 0x9c, 
0x11, 0x1e, 0xc2, 0x61, 0x9a, 0x5a, 0x19, 0x1d, 0x46, 0x04, 0x8f, 0x48, 
0x5c, 0x12, 0xeb, 0x20, 0x3a, 0x2b, 0x2d, 0x16, 0xb6, 0x96, 0xdb, 0xea, 
0x0d, 0xb8, 0x23, 0xa8, 0x31, 0xcb, 0x32, 0xf7, 0x25, 0x9b, 0x35, 0xa1, 
0x3a, 0xe6, 0x08, 0xd4, 0x5d, 0x12, 0x05, 0x6a, 0xb3, 0x5e, 0xb6, 0xd3, 
0x96, 0xd5, 0xac, 0xb5, 0x28, 0xd3, 0xcb, 0x22, 0xa6, 0xb7, 0x1a, 0x81, 
0x89, 0x37, 0x4b, 0x50, 0x9b, 0x6a, 0x4c, 0x1f, 0x75, 0xf0, 0xbd, 0xe9, 
0x33, 0xc7, 0x73, 0xb6, 0x90, 0x45, 0xcf, 0x0a, 0xcf, 0x6e, 0x20, 0xc4, 
0xcd, 0x98, 0x68, 0x2b, 0xa2, 0xe7, 0x42, 0xc5, 0x89, 0x72, 0xa7, 0x5a, 
0x52, 0x05, 0x01, 0xfd, 0x66, 0x5c, 0xb1, 0x0c, 0xad, 0xa2, 0x0f, 0xdc, 
0x16, 0x36, 0x67, 0x3f, 0x1b, 0x32, 0xd3, 0xf9, 0xe3, 0x8a, 0xce, 0xd6, 
0x56, 0xe2, 0xc6, 0xcc, 0x05, 0xd3, 0x6f, 0x62, 0xb6, 0xa4, 0xa6, 0x6e, 
0x9a, 0x79, 0xf8, 0xa4, 0x73, 0xa7, 0x42, 0x2a, 0x0b, 0xba, 0x70, 0x3f, 
0x98, 0x13, 0xb4, 0x37, 0x4c, 0x03, 0xfa, 0x95, 0x8e, 0x65, 0x18, 0xc1, 
0xfe, 0xb9, 0xfc, 0xfe, 0x41, 0x49, 0x3d, 0x3b, 0xdd, 0xbf, 0x0a, 0x60, 
0xa4, 0xbb, 0xe5, 0xcd, 0x34, 0xb2, 0xc3, 0x23, 0x25, 0x2b, 0x26, 0x6a, 
0x6e, 0x8e, 0xf9, 0x78, 0xc1, 0x21, 0x95, 0x32, 0x67, 0xce, 0x2b, 0x35, 
0xea, 0xf4, 0xf4, 0xd6, 0x5d, 0x42, 0x95, 0x8e, 0xd4, 0x9d, 0x57, 0xd0, 
0xaf, 0x9a, 0x96, 0x0f, 0xc3, 0xa9, 0x8d, 0x02, 0xfe, 0x3a, 0x7f, 0xe8, 
0x35, 0x64, 0x22, 0xb9, 0x4c, 0x97, 0xf6, 0xdb, 0x9f, 0x9f, 0xf3, 0x92, 
0x7c, 0x91, 0x07, 0x07, 0x09, 0x25, 0x76, 0x45, 0x2a, 0xd0, 0x02, 0x4f, 
0x50, 0x1d, 0x1d, 0xcf, 0xa0, 0xc8, 0xc0, 0x90, 0x72, 0xca, 0x1e, 0xed, 
0xd2, 0x41, 0x03, 0xfb, 0xf5, 0x6f, 0x46, 0x92, 0x2f, 0x0e, 0xd7, 0x35, 
0x3d, 0x17, 0x05, 0xd8, 0x2f, 0xba, 0x51, 0x8f, 0x69, 0x63, 0x0b, 0xce, 
0xb8, 0xa9, 0xd4, 0x0d, 0xd7, 0x8e, 0x16, 0xb7, 0x0a, 0xc8, 0x12, 0xfb, 
0xd6, 0x56, 0x4c, 0xa7, 0xc9, 0x66, 0x04, 0x45, 0x2b, 0xd6, 0xba, 0x0d, 
0x19, 0x31, 0x28, 0xe6, 0xc2, 0x43, 0x91, 0xb5, 0x8c, 0xff, 0xff, 0xdf, 
0x59, 0x3d, 0x22, 0x55, 0x8d, 0xfc, 0xd0, 0x2d, 0x58, 0xed, 0xf1, 0x6d, 
0x11, 0xdd, 0x98, 0xa3, 0xc7, 0xc2, 0xed, 0xae, 0xda, 0x94, 0x54, 0x19, 
0xe5, 0x32, 0x79, 0x53, 0xb6, 0xea, 0x6d, 0x40, 0xa4, 0x49, 0xe1, 0x67, 
0xe1, 0x6b, 0x34, 0x0c, 0x55, 0x17, 0x9e, 0xbe, 0xa8, 0x83, 0xf7, 0xad, 
0x38, 0x29, 0x1e, 0x2f, 0x3c, 0xda, 0xc8, 0x9d, 0xb3, 0x7f, 0x6b, 0xd2, 
0x30, 0xf8, 0xa0, 0x91, 0x5b, 0xe9, 0x1f, 0x10, 0x5d, 0x5f, 0xcc, 0xb6, 
0xf6, 0x1a, 0x4c, 0xf9, 0x55, 0x4a, 0x99, 0xea, 0xcb, 0x6b, 0x63, 0xd0, 
0x61, 0x86, 0x79, 0x95, 0xbf, 0xf4, 0x0d, 0xf1, 0xf8, 0xd2, 0x54, 0xd8, 
0xcb, 0xbd, 0x0f, 0x0f, 0x67, 0xb8, 0xe7, 0x4a, 0xd9, 0x1c, 0x05, 0x98, 
0x0c, 0xb3, 0x72, 0xce, 0xa2, 0x4a, 0x0f, 0x94, 0x47, 0x73, 0x5b, 0x34, 
0x59, 0x7a, 0x59, 0x07, 0x4f, 0x6b, 0xd2, 0xba, 0x23, 0xed, 0x47, 0x64, 
0xce, 0x09, 0x1a, 0x41, 0xfc, 0xa6, 0x60, 0xa7, 0xdc, 0x12, 0xf0, 0x6d, 
0xce, 0xb5, 0x2c, 0x4f, 0xb9, 0x2f, 0xe0, 0xa6, 0x01, 0x3b, 0x99, 0x9c, 
0x2a, 0xff, 0xb2, 0x67, 0xfd, 0x14, 0xd2, 0x36, 0xf1, 0x6b, 0x4e, 0xdc, 
0xc8, 0xd2, 0x85, 0x45, 0xd9, 0xff, 0x54, 0x73, 0x2f, 0x9e, 0x8b, 0xe6, 
0x53, 0xce, 0xf3, 0x37, 0xca, 0x4b, 0x3d, 0x14, 0x1b, 0xc3, 0x81, 0xa0, 
0x36, 0xc8, 0x22, 0x32, 0x1c, 0xad, 0xba, 0x15, 0x07, 0xd2, 0xb3, 0x35, 
0x57, 0x90, 0x52, 0x2d, 0xef, 0xb5, 0x6e, 0x52, 0xc2, 0x67, 0x9f, 0x29, 
0x17, 0x0f, 0x24, 0x9b, 0x56, 0xdf, 0xdc, 0x56, 0x47, 0x6c, 0x15, 0xe5, 
0xa2, 0x0a, 0xd3, 0x5e, 0x0d, 0xce, 0xcf, 0x98, 0xda, 0xb5, 0xc4, 0x7b, 
0x3c, 0x04, 0xb2, 0x4e, 0xad, 0xb6, 0xa6, 0x22, 0xe0, 0xf3, 0x3a, 0x8b, 
0x22, 0x9e, 0x65, 0x95, 0x1c, 0x21, 0x5c, 0x44, 0x0f, 0x6a, 0x3a, 0x5f, 
0xd6, 0x0b, 0x7d, 0xcf, 0x87, 0x33, 0xe2, 0xb7, 0xdd, 0x1c, 0x1f, 0xae, 
0xd8, 0x56, 0x60, 0x5f, 0xb5, 0x48, 0x48, 0xcd, 0xc0, 0x1f, 0x09, 0xcf, 
0x19, 0x3e, 0xc8, 0xb8, 0xf9, 0x94, 0xe6, 0xe8, 0xb1, 0xcf, 0x53, 0x93, 
0x32, 0x35, 0x5f, 0x51, 0x0d, 0x39, 0xef, 0xd3, 0xc5, 0xbd, 0x46, 0xbf, 
0x35, 0x06, 0xbb, 0xce, 0x9e, 0xb5, 0x47, 0x56, 0x09, 0xd0, 0x58, 0x99, 
0xf2, 0x75, 0x6d, 0xfb, 0x5c, 0xca, 0x07, 0x4f, 0xd6, 0x50, 0x4a, 0xac, 
0xf2, 0x59, 0x1e, 0xe0, 0x3a, 0x5e, 0x05, 0x7d, 0xec, 0x21, 0xca, 0xe1, 
0xc2, 0x26, 0x3a, 0x46, 0xc8, 0x21, 0x1b, 0xf2, 0xe8, 0x5f, 0xcb, 0x62, 
0xb1, 0x00, 0x34, 0x02, 0x44, 0x29, 0x6e, 0x24, 0x17, 0xb8, 0x09, 0x20, 
0xe0, 0x77, 0xa4, 0x75, 0x32, 0x1a, 0x6d, 0x91, 0xb7, 0xaf, 0xf5, 0xfe, 
0x4e, 0xf0, 0x14, 0xb8, 0x62, 0x4e, 0x3f, 0x61, 0x8a, 0xd7, 0x7f, 0xc9, 
0x43, 0x49, 0x52, 0x4f, 0xad, 0xf0, 0x61, 0x31, 0xda, 0x40, 0x0c, 0xbc, 
0x24, 0x22, 0x1e, 0x58, 0x3d, 0x7f, 0x44, 0xf7, 0xb0, 0x42, 0x24, 0x1c, 
0x00, 0x65, 0xb0, 0x2a, 0xcc, 0xb5, 0xa3, 0x0c, 0xea, 0xdd, 0xf3, 0x9a, 
0x4d, 0xb1, 0x3e, 0xd0, 0x24, 0x0e, 0x42, 0x36, 0x33, 0xfd, 0x98, 0xa0, 
0xa7, 0x69, 0xdb, 0x15, 0x95, 0xc3, 0x4e, 0x52, 0xc2, 0x24, 0xd7, 0x9e, 
0xb9, 0x07, 0x57, 0x3e, 0xc7, 0x58, 0x9d, 0x3d, 0x14, 0xeb, 0x4d, 0x09, 
0x52, 0xb0, 0xb4, 0xd0, 0xf1, 0x47, 0x60, 0xa4, 0x5c, 0x30, 0x12, 0xec, 
0xc1, 0x3f, 0x0d, 0x2d, 0xb6, 0xf9, 0xd9, 0xef, 0x2b, 0xab, 0x57, 0xf3, 
0xc4, 0x73, 0x40, 0x57, 0xb7, 0xe6, 0x55, 0xab, 0xdd, 0xc6, 0x21, 0xa8, 
0xad, 0x28, 0x67, 0xc9, 0xae, 0x18, 0x64, 0xee, 0x1d, 0x2a, 0x50, 0x08, 
0x5c, 0xfd, 0xe5, 0x2e, 0x1d, 0x07, 0x3a, 0x61, 0xbe, 0xff, 0xeb, 0xa2, 
0xfc, 0xd7, 0xbf, 0x61, 0x17, 0xb1, 0x30, 0x08, 0x14, 0xb9, 0xea, 0xcb, 
0x3e, 0x19, 0x08, 0x53, 0xe3, 0xb7, 0xb2, 0xf5, 0x86, 0x2a, 0xe5, 0xe0, 
0x0c, 0xe8, 0xec, 0x41, 0xcd, 0x9f, 0x04, 0xd0, 0xf5, 0x93, 0x07, 0x3f, 
0x21, 0x2d, 0x89, 0x4e, 0x50, 0x37, 0xa7, 0x2d, 0xb3, 0x11, 0xe5, 0x61, 
0x4c, 0xea, 0x4b, 0xcd, 0x0f, 0xb8, 0x89, 0x05, 0x12, 0x26, 0xe1, 0xf3, 
0xbe, 0xac, 0xdf, 0x47, 0x4c, 0xc7, 0xab, 0xcc, 0x6a, 0xd8, 0x1e, 0xce, 
0xa9, 0xcc, 0xa8, 0x9b, 0x0b, 0x41, 0x28, 0x47, 0x6d, 0x15, 0x8e, 0xa9, 
0x41, 0x19, 0x68, 0xb2, 0x29, 0x52, 0x61, 0x06, 0x9f, 0x90, 0x26, 0x9e, 
0x96, 0xba, 0x8d, 0x29, 0x3f, 0x35, 0x23, 0x5a, 0xfd, 0x50, 0xc3, 0x9e, 
0xd4, 0x0d, 0xdb, 0x03, 0x65, 0x4d, 0xcc, 0x2b, 0x33, 0x2b, 0xe5, 0x95, 
0x35, 0xbe, 0x53, 0x38, 0x5c, 0x6b, 0xfd, 0x4c, 0xda, 0x04, 0x2b, 0xc6, 
0x1a, 0x14, 0x58, 0x9b, 0xcf, 0x67, 0x51, 0xac, 0x9c, 0x6e, 0xb1, 0x6d, 
0xf5, 0x72, 0xe3, 0x8a, 0x4a, 0x81, 0xfd, 0x93, 0x0c, 0x2f, 0xb4, 0x03, 
0x23, 0x40, 0x1e, 0xae, 0xff, 0x22, 0x4d, 0x40, 0x04, 0x59, 0x05, 0x08, 
0xc0, 0xba, 0xe3, 0x81, 0x23, 0x74, 0x3d, 0x8c, 0xc1, 0xa2, 0x86, 0x2d, 
0x00, 0xcb, 0xe8, 0x52, 0x01, 0xbd, 0x18, 0xe3, 0xf7, 0x50, 0x07, 0xc5, 
0x8e, 0x4f, 0x63, 0x26, 0xa7, 0x70, 0xc7, 0xd7, 0x5e, 0x17, 0x55, 0xf7, 
0xbf, 0xfa, 0x27, 0x9b, 0x62, 0xcc, 0xd2, 0x46, 0xee, 0xa8, 0x7b, 0xa4, 
0x74, 0x66, 0xd5, 0x5d, 0xcd, 0x38, 0xf8, 0xce, 0x56, 0x30, 0xb6, 0x30, 
0x21, 0x58, 0xb7, 0xfd, 0x3c, 0x11, 0x76, 0x37, 0x12, 0xf0, 0xb9, 0x2d, 
0xe2, 0xe3, 0xab, 0x6c, 0xc2, 0x76, 0x9c, 0x17, 0x3c, 0x30, 0xfc, 0x59, 
0x00, 0x58, 0x3a, 0xd4, 0x88, 0xc9, 0x0b, 0xbf, 0x1a, 0xf3, 0xf3, 0x57, 
0x4e, 0xb2, 0x36, 0x0d, 0x17, 0x7b, 0x7b, 0xea, 0x30, 0xe2, 0x51, 0x60, 
0xc4, 0x62, 0x5d, 0xee, 0xb6, 0xf7, 0xff, 0xab, 0xcc, 0x7d, 0x5c, 0x33, 
0xdf, 0x6d, 0xfd, 0x47, 0x94, 0x17, 0x68, 0x25, 0x75, 0xbd, 0x72, 0x2b, 
0x79, 0xcf, 0xde, 0x92, 0x4c, 0x29, 0xb4, 0x47, 0xe0, 0x8b, 0x35, 0xf4, 
0x07, 0xf1, 0x36, 0x2e, 0x0e, 0x84, 0xa2, 0xb5, 0x30, 0xc7, 0xea, 0xd9, 
0x3a, 0x8a, 0xe2, 0xb2, 0xf3, 0x3f, 0x6f, 0x33, 0x46, 0xdc, 0x9d, 0xe1, 
0xdf, 0xd2, 0x32, 0x86, 0xd5, 0x7a, 0x4b, 0xf2, 0x11, 0x1c, 0xb5, 0x2e, 
0x52, 0xeb, 0x2a, 0x05, 0xc6, 0xfc, 0xe1, 0x9c, 0x4e, 0xfb, 0x49, 0xd1, 
0x01, 0x06, 0x88, 0xd6, 0xfb, 0xdd, 0x29, 0x1e, 0x69, 0x6e, 0xf7, 0x42, 
0x3e, 0x9a, 0x26, 0x31, 0x36, 0xba, 0x67, 0x31, 0x52, 0x02, 0x3a, 0xed, 
0x8c, 0x22, 0x07, 0xce, 0xa3, 0x1a, 0x6f, 0x81, 0xe1, 0xc1, 0xba, 0xbc, 
0x48, 0x3f, 0x9c, 0xe8, 0xf5, 0x20, 0xc3, 0xbc, 0xaf, 0x56, 0x28, 0x17, 
0x4d, 0xa0, 0x02, 0x13, 0xe1, 0xf2, 0x64, 0xe6, 0xe0, 0x16, 0xac, 0xdf, 
0x43, 0x71, 0x3c, 0x68, 0x94, 0xd8, 0x2f, 0x05, 0xbb, 0x48, 0xa9, 0xf2, 
0x1a, 0xbe, 0xf1, 0xd0, 0xc1, 0xbf, 0x98, 0x08, 0xd6, 0x33, 0xf8, 0x5d, 
0x24, 0x4e, 0xd1, 0x37, 0x45, 0x9f, 0xdc, 0x8c, 0xd6, 0xcd, 0x53, 0x3b, 
0x48, 0xc7, 0xbb, 0x11, 0x0a, 0x23, 0xde, 0xfe, 0x8c, 0x04, 0x17, 0x43, 
0xcb, 0x1d, 0xbb, 0x50, 0x68, 0x5c, 0xe0, 0xa4, 0xba, 0xc9, 0x27, 0x69, 
0x20, 0xd6, 0xa2, 0x65, 0xed, 0xaa, 0x19, 0xe0, 0xc7, 0x50, 0xf6, 0xa1, 
0xc6, 0xab, 0xe5, 0xe4, 0x08, 0x00, 0x2a, 0x73, 0x19, 0x18, 0xee, 0x5b, 
0x1d, 0x21, 0x5a, 0xad, 0x55, 0xb3, 0x5b, 0xac, 0x46, 0x52, 0xca, 0x0e, 
0x9f, 0xb1, 0x0a, 0xfa, 0xf6, 0x5e, 0x6b, 0xa6, 0x33, 0x5c, 0x57, 0x5c, 
0x0b, 0x08, 0x21, 0x56, 0x9e, 0x72, 0x51, 0xcd, 0x32, 0x32, 0xf3, 0x93, 
0x5f, 0x15, 0x49, 0x9c, 0x93, 0x9d, 0xae, 0xe0, 0x01, 0x35, 0xe6, 0x3e, 
0xb1, 0x3c, 0x4c, 0x98, 0x59, 0xcd, 0x00, 0x47, 0xd4, 0x4e, 0xd3, 0xb0, 
0xea, 0x1b, 0x60, 0xb8, 0x6a, 0xc7, 0x77, 0x20, 0x0a, 0xe4, 0xc2, 0x6a, 
0xef, 0xd3, 0x77, 0xe1, 0xf1, 0x2a, 0x3b, 0xc3, 0xe5, 0x0c, 0xd9, 0x2e, 
0x77, 0x07, 0xff, 0x1d, 0x81, 0xf5, 0xf5, 0xd4, 0x19, 0xd3, 0x3c, 0xf5, 
0x6c, 0x59, 0xa5, 0xdd, 0x58, 0x8c, 0x96, 0xfe, 0x3f, 0xa2, 0x2b, 0xa3, 
0xd8, 0x9d, 0x58, 0xeb, 0xa6, 0x8f, 0x18, 0x61, 0x62, 0xab, 0x0e, 0xa7, 
0x86, 0x05, 0xb0, 0x9d, 0xe0, 0x42, 0x59, 0x97, 0x60, 0x49, 0xa6, 0xa4, 
0xda, 0xa5, 0x08, 0x36, 0xcd, 0x5b, 0x1d, 0x63, 0x99, 0x42, 0xc2, 0xc7, 
0x95, 0x34, 0x1e, 0x31, 0x78, 0x88, 0x51, 0x32, 0xc0, 0x9a, 0x14, 0x37, 
0x31, 0xe0, 0x8b, 0x55, 0x01, 0x0a, 0x33, 0xf7, 0x2d, 0x38, 0xe9, 0x47, 
0x40, 0xa9, 0x60, 0x68, 0x4f, 0xf1, 0x6c, 0xa7, 0xda, 0x36, 0x2c, 0x50, 
0xcf, 0x60, 0xd4, 0x68, 0x0e, 0x63, 0xea, 0xf9, 0xe9, 0xaf, 0xa7, 0xe7, 
0x62, 0x14, 0x01, 0x93, 0x73, 0xdc, 0x1a, 0x4e, 0x37, 0xa5, 0xb4, 0xa3, 
0xdb, 0xd7, 0xc5, 0x28, 0xb3, 0x52, 0xd8, 0xc8, 0x5b, 0xb3, 0xa0, 0x9f, 
0x2e, 0x01, 0x78, 0x4a, 0xf0, 0xf5, 0x6f, 0x5e, 0x04, 0xbf, 0x27, 0x62, 
0x3c, 0x51, 0x13, 0xea, 0xe1, 0x20, 0xa2, 0x7f, 0x5b, 0xd6, 0xdf, 0x52, 
0x60, 0x93, 0x6b, 0xd0, 0xc2, 0x46, 0x21, 0x51, 0x97, 0x3f, 0xfb, 0xdd, 
0xd3, 0x8b, 0xa9, 0x01, 0x3e, 0x1c, 0x72, 0x97, 0x1f, 0x41, 0xc3, 0xd4, 
0xc5, 0x94, 0x2b, 0x72, 0x47, 0x69, 0xd1, 0xee, 0x4b, 0x68, 0x70, 0xb2, 
0xfa, 0xa1, 0xd4, 0x5e, 0xc6, 0xd6, 0xaa, 0xbb, 0xcf, 0xb5, 0x41, 0x51, 
0x29, 0xeb, 0xb6, 0x9c, 0x3a, 0xf7, 0xc6, 0xdc, 0x63, 0xda, 0x7e, 0x1a, 
0xa4, 0xc8, 0x9c, 0x1c, 0x0e, 0x0d, 0x3f, 0x60, 0xf3, 0xbe, 0xc3, 0x11, 
0x64, 0xb1, 0x11, 0x24, 0xa0, 0x71, 0xac, 0xdf, 0x0b, 0x10, 0x6f, 0x4e, 
0x26, 0x9a, 0x77, 0x9e, 0x54, 0x43, 0x76, 0x40, 0x57, 0xc0, 0xef, 0x68, 
0x29, 0xfe, 0xd8, 0xaf, 0xc3, 0xf9, 0xc3, 0x53, 0x63, 0x03, 0x97, 0x2f, 
0x87, 0xd6, 0x29, 0xc8, 0xf8, 0x77, 0x3e, 0x82, 0x19, 0x54, 0x11, 0x3d, 
0x4e, 0xed, 0xc7, 0x25, 0xb9, 0x3f, 0xa3, 0xc3, 0x82, 0xa9, 0x4d, 0x17, 
0xf2, 0x8b, 0xd0, 0x7f, 0x3d, 0x61, 0xe6, 0x5a, 0x66, 0xcd, 0xb4, 0xcd, 
0xe2, 0x9d, 0x9a, 0x4c, 0x97, 0x7f, 0xfb, 0xcb, 0xf7, 0x61, 0xe7, 0xde, 
0xac, 0x99, 0x3c, 0x14, 0xad, 0x45, 0x57, 0x5e, 0xb1, 0x14, 0xa4, 0x9f, 
0x16, 0xf4, 0x33, 0x36, 0x43, 0x0d, 0x50, 0x71, 0x96, 0x16, 0xb0, 0xa2, 
0xd9, 0xb1, 0xc6, 0x04, 0x40, 0x26, 0xba, 0x19, 0x7b, 0x0e, 0xc9, 0x6c, 
0x3c, 0xbd, 0xf2, 0xf7, 0xbb, 0x3c, 0x2d, 0x44, 0x4c, 0x2f, 0x17, 0x74, 
0x9e, 0xa9, 0xa0, 0xee, 0x1b, 0xa6, 0xbf, 0x19, 0xf8, 0xf7, 0x1b, 0x4a, 
0xf4, 0x4b, 0x91, 0x79, 0xd2, 0xd9, 0xb8, 0x9d, 0xcb, 0xf9, 0x9d, 0x8f, 
0x61, 0xe7, 0xac, 0xbb, 0xc8, 0xf4, 0x69, 0xf3, 0xf8, 0x50, 0xf7, 0x3b, 
0x11, 0xac, 0xae, 0x00, 0x2d, 0x39, 0x0a, 0xec, 0x32, 0x36, 0xfa, 0x83, 
0xea, 0x98, 0xfc, 0xc1, 0xd7, 0x0f, 0x16, 0xa9, 0x19, 0x09, 0x43, 0xb2, 
0xdc, 0x0c, 0x71, 0x50, 0xd1, 0xec, 0x17, 0xdd, 0x27, 0xe2, 0xcc, 0x8a, 
0xf0, 0x5b, 0x73, 0x27, 0xb5, 0xe3, 0x59, 0x66, 0xd3, 0x04, 0xd4, 0x57, 
0xad, 0x47, 0x52, 0x14, 0x56, 0xc1, 0xa1, 0xeb, 0xc9, 0xc6, 0x68, 0x69, 
0xce, 0x03, 0x53, 0xf8, 0xb7, 0x69, 0x25, 0x97, 0x9d, 0x56, 0xd2, 0xdd, 
0x3c, 0xca, 0x54, 0x27, 0xe3, 0xfb, 0x1a, 0x2e, 0xfe, 0x9c, 0x95, 0xa4, 
0x19, 0x4d, 0xdb, 0xf0, 0x3e, 0x32, 0xb7, 0x65, 0xfa, 0x09, 0x5d, 0x15, 
0x60, 0xa1, 0x31, 0xcd, 0x71, 0x16, 0x9f, 0x8e, 0x81, 0xeb, 0x06, 0xc0, 
0x4e, 0xe5, 0x04, 0xf4, 0x40, 0xb7, 0xd4, 0xe3, 0xfc, 0x3b, 0x5a, 0x3b, 
0x8c, 0x42, 0xad, 0xfc, 0x02, 0x0f, 0x23, 0x23, 0xdc, 0x1b, 0x8f, 0xae, 
0x12, 0xc2, 0xff, 0x59, 0xdf, 0xa1, 0xc4, 0x92, 0x1d, 0xcf, 0x11, 0x39, 
0x5f, 0x8f, 0x2f, 0x30, 0x2d, 0x9a, 0x1a, 0xfa, 0xfc, 0x15, 0x0e, 0x8e, 
0xf2, 0x07, 0x2a, 0xe0, 0x4f, 0xd5, 0x22, 0x0c, 0x13, 0x48, 0xb9, 0x00, 
0x55, 0xb7, 0x1e, 0x51, 0x12, 0x0b, 0xac, 0xce, 0x41, 0x0c, 0xc4, 0x6c, 
0x36, 0x5a, 0xba, 0xd9, 0x32, 0x22, 0xa0, 0x9b, 0x13, 0xae, 0x88, 0xd2, 
0x7a, 0x46, 0x5f, 0x06, 0x4a, 0x44, 0xba, 0x33, 0x90, 0x43, 0x5c, 0x3d, 
0xd6, 0x9e, 0x65, 0x1b, 0x04, 0x12, 0xc6, 0x68, 0x1c, 0x73, 0x90, 0x3a, 
0x94, 0x59, 0x50, 0x65, 0xef, 0xb1, 0x2e, 0x9f, 0x9a, 0x39, 0x0c, 0xf4, 
0xb7, 0x0f, 0xf5, 0x4d, 0xd2, 0xbc, 0x39, 0x0c, 0x12, 0xcd, 0x94, 0x13, 
0xdf, 0xb6, 0x2c, 0xd6, 0x8b, 0x8b, 0x52, 0x9e, 0xa5, 0x28, 0x23, 0xe4, 
0xaa, 0xb6, 0x3d, 0xec, 0xb4, 0x34, 0x05, 0x00, 0x05, 0xbf, 0x3c, 0xd3, 
0xda, 0x53, 0x12, 0x2a, 0xa9, 0x3e, 0x96, 0xdf, 0xd9, 0xff, 0x50, 0xaa, 
0xd8, 0x0f, 0xb4, 0x1a, 0x12, 0xd2, 0xc0, 0xf6, 0x6c, 0xf0, 0xf4, 0x86, 
0xca, 0x2e, 0xfa, 0xd8, 0x89, 0xb2, 0xaa, 0x50, 0xa8, 0x95, 0x64, 0x46, 
0x5b, 0xa9, 0x02, 0x09, 0xd8, 0x9b, 0xdd, 0xc2, 0xc9, 0xae, 0x3d, 0x94, 
0x39, 0xc9, 0xeb, 0xcb, 0x58, 0x81, 0x94, 0xbe, 0x6b, 0x55, 0x5f, 0x48, 
0xe9, 0x57, 0xe2, 0xbd, 0x9d, 0x10, 0xd2, 0x64, 0x73, 0xcf, 0x5b, 0x11, 
0x13, 0x2e, 0x3d, 0x5b, 0x47, 0x54, 0xf7, 0x9b, 0x67, 0x4d, 0x00, 0x0b, 
0xa8, 0xb2, 0xf3, 0x87, 0xb6, 0x29, 0xa5, 0x61, 0x02, 0xef, 0x2f, 0x83, 
0x2a, 0xe2, 0xa7, 0xc8, 0xcd, 0x61, 0x48, 0xc8, 0xaa, 0xef, 0x81, 0x1c, 
0x59, 0x63, 0x5b, 0x5a, 0xa4, 0x87, 0x36, 0x3d, 0x6c, 0x1c, 0x48, 0x8b, 
0x35, 0x3b, 0xb8, 0xae, 0xaa, 0xb0, 0x55, 0xd5, 0xf6, 0x01, 0xbe, 0x76, 
0x52, 0x3e, 0x14, 0xf4, 0x9d, 0x1c, 0x2a, 0xda, 0xc4, 0x59, 0x1d, 0x5a, 
0xf3, 0x3f, 0x07, 0xaa, 0x6f, 0xe8, 0x40, 0x2d, 0xa7, 0x04, 0x9f, 0x17, 
0x3a, 0xcd, 0x9e, 0xc2, 0x0d, 0xb2, 0x23, 0x1d, 0x31, 0x25, 0x49, 0xe2, 
0xfc, 0xb6, 0x03, 0xce, 0xd0, 0x36, 0x61, 0x42, 0x2f, 0x37, 0x8f, 0x14, 
0xdb, 0x70, 0xb5, 0xd4, 0x45, 0x1e, 0xcc, 0x10, 0xc7, 0xc8, 0x0b, 0x4c, 
0xf4, 0x8f, 0x95, 0xe5, 0xe5, 0x20, 0x29, 0x87, 0x63, 0xa3, 0xa8, 0x99, 
0x3f, 0xb8, 0xb6, 0xdb, 0x54, 0x9a, 0xaa, 0xa9, 0x2b, 0x55, 0x42, 0x75, 
0x49, 0x3f, 0x42, 0x00, 0xeb, 0xd3, 0xc7, 0x20, 0x75, 0xc0, 0xd6, 0x4c, 
0x1e, 0xfb, 0x25, 0x1e, 0x8b, 0x9a, 0x40, 0x92, 0x44, 0xd1, 0x5f, 0xb6, 
0xfc, 0x79, 0xbe, 0x24, 0x7d, 0x6e, 0x9a, 0x38, 0x7f, 0x61, 0x3f, 0xa2, 
0xb4, 0x72, 0xbd, 0xb8, 0x00, 0x5d, 0x49, 0x49, 0x06, 0x2d, 0x47, 0xf8, 
0x10, 0x55, 0x7b, 0x50, 0x48, 0x66, 0xb8, 0x5e, 0x22, 0x79, 0xd5, 0x2e, 
0x64, 0xe8, 0xd2, 0xb0, 0x33, 0xe0, 0x16, 0x13, 0x28, 0xb1, 0x12, 0x6f, 
0x69, 0x6a, 0x6d, 0xa0, 0x82, 0xc6, 0xc2, 0x1c, 0x42, 0x5e, 0x1f, 0x6e, 
0x34, 0xd7, 0x55, 0x52, 0xae, 0x21, 0xc4, 0xbc, 0xa7, 0xfc, 0x92, 0x27, 
0x8d, 0x47, 0x53, 0x8d, 0x1f, 0x62, 0x3a, 0xce, 0xaf, 0x89, 0x6d, 0x50, 
0x4d, 0x56, 0x9c, 0x2a, 0xa2, 0x4c, 0xb5, 0xb3, 0x50, 0x05, 0x06, 0xb4, 
0x3d, 0x06, 0x87, 0x7a, 0x04, 0x5a, 0x99, 0x57, 0xe5, 0x6a, 0xea, 0x1d, 
0x9d, 0xc4, 0xa3, 0xc0, 0xb5, 0x4e, 0xd6, 0xd6, 0xda, 0xf8, 0xff, 0xff, 
0x04, 0x00, 0x00, 0x00, 0x80, 0x00, 0x00, 0x00, 0x6d, 0x04, 0x00, 0x00, 
0x89, 0x01, 0x00, 0x00, 0xa4, 0xfe, 0xff, 0xff, 0xe7, 0xfe, 0xff, 0xff, 
0x96, 0xfb, 0xff, 0xff, 0x8c, 0xfd, 0xff, 0xff, 0xfe, 0xfe, 0xff, 0xff, 
0x24, 0xfc, 0xff, 0xff, 0x2b, 0x02, 0x00, 0x00, 0xe4, 0x02, 0x00, 0x00, 
0x48, 0xfc, 0xff, 0xff, 0x9f, 0xff, 0xff, 0xff, 0x32, 0xff, 0xff, 0xff, 
0x94, 0xff, 0xff, 0xff, 0xae, 0xff, 0xff, 0xff, 0x23, 0x05, 0x00, 0x00, 
0x14, 0x03, 0x00, 0x00, 0xbd, 0xfd, 0xff, 0xff, 0x87, 0xfd, 0xff, 0xff, 
0xa3, 0xfd, 0xff, 0xff, 0x71, 0xfa, 0xff, 0xff, 0x72, 0x01, 0x00, 0x00, 
0x0b, 0xfb, 0xff, 0xff, 0xf8, 0x04, 0x00, 0x00, 0x72, 0xfa, 0xff, 0xff, 
0x26, 0x00, 0x00, 0x00, 0xbf, 0xfc, 0xff, 0xff, 0x17, 0x02, 0x00, 0x00, 
0x62, 0xfb, 0xff, 0xff, 0x98, 0xfb, 0xff, 0xff, 0xac, 0x00, 0x00, 0x00, 
0xca, 0xff, 0xff, 0xff, 0x66, 0xf9, 0xff, 0xff, 0x04, 0x00, 0x00, 0x00, 
0x20, 0x00, 0x00, 0x00, 0x7f, 0x7b, 0x72, 0x79, 0x6d, 0x5f, 0x74, 0x77, 
0x71, 0x75, 0x73, 0x7b, 0x6e, 0x75, 0x78, 0x7c, 0x7a, 0x76, 0x7b, 0x5c, 
0x6f, 0x7c, 0x6d, 0x7f, 0x6f, 0x6f, 0x7d, 0x7f, 0x77, 0x78, 0x71, 0x62, 
0x92, 0xf9, 0xff, 0xff, 0x04, 0x00, 0x00, 0x00, 0x20, 0x00, 0x00, 0x00, 
0x42, 0x4a, 0x17, 0x36, 0xeb, 0xd9, 0x32, 0x3e, 0xe5, 0x2c, 0x01, 0x49, 
0x11, 0x2e, 0x47, 0x4b, 0x29, 0x15, 0x4b, 0x80, 0x1e, 0x57, 0xfe, 0x49, 
0xdd, 0xfa, 0x3d, 0x65, 0x2f, 0x42, 0x05, 0x92, 0xbe, 0xf9, 0xff, 0xff, 
0x04, 0x00, 0x00, 0x00, 0x00, 0x04, 0x00, 0x00, 0x9e, 0x70, 0x7e, 0x75, 
0xb1, 0x22, 0xc0, 0x99, 0xd9, 0x9b, 0xc9, 0xc8, 0xd3, 0xe9, 0xd0, 0x32, 
0x0e, 0x81, 0x14, 0x2c, 0x64, 0x53, 0x70, 0x25, 0x27, 0x4b, 0x36, 0xf1, 
0x68, 0x9e, 0x7d, 0xa6, 0x7f, 0x8b, 0x4d, 0x8d, 0xd8, 0xac, 0xf6, 0x14, 
0xe4, 0xf5, 0x75, 0x00, 0x11, 0xf7, 0x04, 0x29, 0xd4, 0x46, 0x74, 0x44, 
0xd4, 0x93, 0xe5, 0x2c, 0x4e, 0x4a, 0x4b, 0xff, 0xc6, 0xcc, 0x0d, 0xae, 
0x71, 0x65, 0xf8, 0x3c, 0x8c, 0xc8, 0x0c, 0x32, 0x6e, 0x6f, 0xf0, 0x00, 
0x6b, 0x30, 0x26, 0x47, 0x33, 0xd5, 0xc0, 0x28, 0x56, 0x02, 0x81, 0x0c, 
0xab, 0x88, 0xcc, 0xb6, 0xb9, 0xad, 0x3f, 0xcf, 0xb0, 0xe6, 0x36, 0x88, 
0x50, 0x92, 0x0a, 0x9f, 0xbf, 0xe6, 0x7c, 0xf1, 0x60, 0x7f, 0xbb, 0xdb, 
0x45, 0x59, 0x2e, 0xd8, 0x32, 0xc7, 0x7a, 0xb1, 0x05, 0x5e, 0xe7, 0x0a, 
0x63, 0x31, 0x15, 0x44, 0x09, 0x24, 0xf6, 0xbc, 0x63, 0x49, 0x5e, 0x5b, 
0xd4, 0xe0, 0x00, 0x50, 0x13, 0x8a, 0x29, 0x07, 0x37, 0x55, 0x5d, 0x6e, 
0xcb, 0xd9, 0x0c, 0xa0, 0xe4, 0x81, 0xe6, 0xaf, 0x2f, 0x6f, 0x0f, 0x50, 
0xd1, 0x24, 0xc0, 0x5b, 0x2b, 0xa4, 0x2c, 0x8f, 0x81, 0x3e, 0xca, 0x91, 
0xfd, 0xb1, 0xac, 0x38, 0x26, 0x52, 0xe5, 0x4f, 0x14, 0x9c, 0xeb, 0x81, 
0x45, 0x4c, 0xe0, 0xb0, 0xf0, 0x64, 0x2d, 0x66, 0x82, 0x00, 0x2e, 0x8a, 
0xa4, 0x40, 0x4e, 0x45, 0x8f, 0x2c, 0x81, 0x82, 0xcc, 0xf8, 0x6a, 0x30, 
0x89, 0x09, 0xbf, 0xf7, 0xc5, 0x67, 0x1d, 0xad, 0x72, 0x87, 0x6f, 0x17, 
0xb6, 0x59, 0x50, 0x56, 0x40, 0x03, 0xe0, 0x1c, 0xb7, 0xfc, 0x91, 0x38, 
0x8e, 0xce, 0xec, 0x5f, 0x5f, 0x03, 0x6f, 0xb9, 0xf3, 0xdb, 0x74, 0x7f, 
0xbc, 0x5e, 0x6a, 0x09, 0x46, 0xdd, 0x18, 0xe9, 0xbc, 0xda, 0x8d, 0x2b, 
0x8c, 0x17, 0xe5, 0x83, 0xaf, 0xfc, 0x7e, 0x28, 0x44, 0x49, 0xa7, 0xa8, 
0x8b, 0x33, 0x83, 0xdd, 0xd3, 0x40, 0xbe, 0xc8, 0xcb, 0xb5, 0x64, 0x46, 
0xca, 0xae, 0x7f, 0x06, 0x9d, 0xfb, 0x5a, 0xc5, 0xaa, 0x7f, 0xf2, 0xc4, 
0xe1, 0x36, 0xf6, 0xdd, 0xa6, 0x50, 0x76, 0x5f, 0x51, 0x65, 0xae, 0x9f, 
0xb2, 0x4d, 0xaa, 0x1f, 0x6b, 0x9f, 0x9f, 0x05, 0x91, 0xdb, 0xed, 0x83, 
0x0d, 0xe0, 0x99, 0xcf, 0xcb, 0x6a, 0x99, 0x6c, 0x26, 0xfe, 0x87, 0xdc, 
0x98, 0x0c, 0x4b, 0xee, 0x93, 0x21, 0x8e, 0xc3, 0xdf, 0xb7, 0x5c, 0x11, 
0xcc, 0x81, 0x79, 0xf8, 0xa1, 0x9e, 0xf7, 0x26, 0xe3, 0x3a, 0xf4, 0x50, 
0x28, 0x5c, 0xd1, 0xe1, 0x71, 0x07, 0x55, 0xdb, 0x0b, 0x6f, 0xda, 0x85, 
0x86, 0x68, 0xbd, 0x5a, 0x32, 0x6e, 0x81, 0x24, 0x94, 0xff, 0xae, 0xb8, 
0x85, 0xe0, 0x19, 0x19, 0xf2, 0x93, 0x12, 0x42, 0x23, 0x89, 0x70, 0xfa, 
0x82, 0xfc, 0xa2, 0xeb, 0x35, 0x45, 0x62, 0x74, 0xbb, 0xc6, 0xe3, 0xc7, 
0xf3, 0xc7, 0x64, 0xf6, 0x2c, 0xd2, 0x7f, 0x2b, 0x83, 0xeb, 0x87, 0x63, 
0xc5, 0xc9, 0x88, 0x09, 0x84, 0x8f, 0x44, 0xf8, 0x8a, 0x01, 0xc0, 0x6a, 
0x67, 0xec, 0x5e, 0xbe, 0x3d, 0x41, 0x52, 0x81, 0x5e, 0xec, 0x17, 0xca, 
0x17, 0x07, 0xbc, 0x46, 0x17, 0x9b, 0x0a, 0x47, 0x44, 0xca, 0xd0, 0x89, 
0x15, 0xd3, 0x22, 0xff, 0xec, 0xef, 0xf9, 0x02, 0x78, 0x1a, 0x4a, 0xf8, 
0x95, 0x12, 0xf9, 0xae, 0x47, 0xf0, 0xe8, 0x1c, 0x47, 0xeb, 0x08, 0xf2, 
0x81, 0xca, 0x17, 0x8b, 0xde, 0xd1, 0xf0, 0x3d, 0x3e, 0xb9, 0x23, 0xf4, 
0x3c, 0x8f, 0x2a, 0x4e, 0x9d, 0xed, 0x53, 0x0c, 0x5f, 0x8d, 0x0a, 0xb1, 
0x9b, 0xac, 0x1a, 0x36, 0x75, 0x81, 0x01, 0x20, 0x61, 0x32, 0x03, 0xcb, 
0xf5, 0x32, 0x2c, 0x38, 0xfe, 0x4b, 0xab, 0xb3, 0x83, 0x70, 0x7b, 0xe2, 
0xb7, 0x7c, 0xbc, 0x83, 0xf5, 0x1d, 0x72, 0xda, 0xab, 0xbb, 0x29, 0x22, 
0x00, 0xff, 0xa5, 0xba, 0x81, 0x3c, 0x6e, 0x46, 0xaa, 0x5f, 0x1f, 0x1b, 
0xfd, 0x2a, 0x2e, 0x1b, 0x04, 0x7a, 0xd5, 0x5d, 0x0f, 0xc6, 0xef, 0x6d, 
0xda, 0x78, 0xd3, 0x38, 0x1b, 0xd5, 0x9d, 0x0d, 0x63, 0x46, 0x0f, 0xab, 
0xf7, 0x59, 0xbc, 0x58, 0xc7, 0x3a, 0xc2, 0x81, 0xb4, 0xdc, 0x10, 0x1b, 
0x21, 0xfa, 0xe0, 0x8a, 0xa9, 0x02, 0x1b, 0xad, 0xd9, 0x99, 0x58, 0x1d, 
0xd0, 0x83, 0x29, 0x3e, 0x02, 0xa8, 0x75, 0x3f, 0x16, 0xa2, 0x7f, 0xd5, 
0x33, 0x69, 0x3c, 0x33, 0xfb, 0x67, 0x21, 0x59, 0x32, 0xd8, 0x4e, 0x48, 
0xc4, 0xf4, 0xd5, 0xc4, 0x3a, 0x6b, 0x5a, 0x2e, 0xae, 0x2c, 0xca, 0x92, 
0x25, 0xe7, 0xb8, 0xb1, 0xa4, 0x9c, 0x81, 0x89, 0x49, 0x7d, 0x7c, 0x83, 
0x6a, 0x0b, 0x15, 0xdf, 0xef, 0x20, 0xb0, 0xf3, 0x2f, 0x6a, 0x49, 0x3c, 
0xea, 0xa3, 0x81, 0x95, 0xdc, 0xc9, 0xc5, 0x2a, 0x23, 0x32, 0xc0, 0x95, 
0xb9, 0xc7, 0x37, 0x5e, 0xf1, 0x1c, 0x41, 0x81, 0x43, 0xfc, 0x17, 0xb3, 
0x59, 0xb2, 0x7f, 0xe8, 0xab, 0xaf, 0xba, 0x25, 0xd3, 0xdb, 0x46, 0xdf, 
0xf0, 0xdf, 0xa3, 0x33, 0x33, 0x59, 0x20, 0xb7, 0xae, 0x8e, 0xc2, 0x89, 
0x74, 0x35, 0x2f, 0x57, 0x27, 0x84, 0xb3, 0xe4, 0x57, 0x07, 0x79, 0x29, 
0x4d, 0x0f, 0x35, 0x32, 0x58, 0x81, 0xa1, 0xa0, 0xae, 0xde, 0x69, 0xaa, 
0xfe, 0x85, 0xa4, 0x7e, 0xbe, 0x34, 0x46, 0x9a, 0x40, 0xc3, 0x88, 0xc2, 
0x86, 0x23, 0xa3, 0x6b, 0xbe, 0xe9, 0x0e, 0x79, 0x27, 0x4b, 0xbd, 0x6f, 
0x94, 0xd4, 0x2f, 0x71, 0x16, 0x68, 0x9e, 0xb6, 0x3a, 0x81, 0xe4, 0xcd, 
0xac, 0x31, 0x8d, 0xb9, 0xe7, 0x87, 0x70, 0x43, 0x8b, 0xb6, 0x73, 0x53, 
0x41, 0x53, 0x6b, 0xdd, 0x60, 0x39, 0x02, 0x02, 0x4b, 0x2f, 0x98, 0x01, 
0x4d, 0x49, 0xa1, 0x57, 0x5d, 0x20, 0x71, 0xca, 0xb3, 0x75, 0x81, 0xe1, 
0x68, 0x8a, 0xf0, 0x95, 0xa6, 0x8b, 0x6f, 0x02, 0x87, 0x71, 0x5b, 0x55, 
0xda, 0x15, 0x12, 0x67, 0xfd, 0x73, 0xdc, 0xdc, 0xc3, 0xd5, 0xfe, 0xea, 
0xcb, 0x8f, 0x6a, 0xde, 0x0c, 0xf8, 0x3e, 0xa0, 0x81, 0xac, 0x42, 0x73, 
0xac, 0x77, 0xe2, 0xda, 0xc9, 0xc7, 0xcd, 0x02, 0x43, 0xf6, 0x7d, 0xfb, 
0x85, 0xfc, 0x55, 0xf4, 0x16, 0x62, 0xfa, 0xc6, 0x40, 0x57, 0x6e, 0x46, 
0xe1, 0xa9, 0x13, 0x22, 0x99, 0x9b, 0x81, 0x60, 0x47, 0xa9, 0xc1, 0xdf, 
0x96, 0x6c, 0x7a, 0x45, 0x32, 0xc1, 0x02, 0x81, 0x02, 0x55, 0x92, 0x0b, 
0x30, 0xe5, 0xc3, 0xb0, 0x4b, 0xe8, 0xf5, 0xc4, 0xb6, 0x5e, 0x47, 0x06, 
0xa0, 0x9d, 0x82, 0x7d, 0x91, 0x50, 0xc8, 0x81, 0x14, 0x16, 0xdb, 0x67, 
0xc0, 0x2c, 0xee, 0xb4, 0x0c, 0x54, 0x71, 0x8a, 0xd5, 0x74, 0x48, 0xe0, 
0x79, 0x2b, 0x6c, 0xaa, 0x73, 0x9c, 0x4e, 0xfa, 0xc9, 0x5c, 0x27, 0x10, 
0x7e, 0x4a, 0x13, 0xb7, 0x00, 0x30, 0xc5, 0x9e, 0x84, 0xba, 0xe7, 0xdf, 
0xc1, 0xd7, 0x6a, 0x73, 0x93, 0xa5, 0xca, 0x1b, 0x7b, 0x97, 0x49, 0x0d, 
0x49, 0x04, 0xfc, 0x8f, 0x15, 0xde, 0x30, 0x81, 0x0b, 0x81, 0xe5, 0x63, 
0x9c, 0xbd, 0x13, 0xc8, 0xd5, 0x15, 0xdc, 0xc6, 0x9d, 0x2a, 0x0b, 0x1a, 
0x6c, 0x4f, 0x34, 0x20, 0x93, 0x04, 0x6d, 0xbe, 0x7d, 0xef, 0x60, 0x9e, 
0x7f, 0xe8, 0xf2, 0xe1, 0x8f, 0x1f, 0x66, 0xca, 0x22, 0xdb, 0x9a, 0x24, 
0x54, 0xf5, 0x74, 0x9a, 0x5d, 0x30, 0x14, 0x23, 0xcb, 0x17, 0xc8, 0xea, 
0x92, 0x10, 0x13, 0x63, 0x05, 0x60, 0x07, 0xa8, 0xde, 0x3a, 0x4b, 0x7f, 
0xca, 0xfd, 0xff, 0xff, 0x04, 0x00, 0x00, 0x00, 0x80, 0x00, 0x00, 0x00, 
0xa9, 0xfe, 0xff, 0xff, 0xa3, 0x00, 0x00, 0x00, 0x6e, 0xff, 0xff, 0xff, 
0xdf, 0xff, 0xff, 0xff, 0xfd, 0xfe, 0xff, 0xff, 0xec, 0xff, 0xff, 0xff, 
0xb8, 0x00, 0x00, 0x00, 0xbe, 0xfd, 0xff, 0xff, 0x00, 0x00, 0x00, 0x00, 
0x00, 0x00, 0x00, 0x00, 0x52, 0xfe, 0xff, 0xff, 0x37, 0xfd, 0xff, 0xff, 
0x71, 0xfe, 0xff, 0xff, 0x63, 0xfc, 0xff, 0xff, 0x42, 0xff, 0xff, 0xff, 
0x77, 0xf9, 0xff, 0xff, 0x58, 0xfe, 0xff, 0xff, 0x8f, 0xfe, 0xff, 0xff, 
0xfa, 0x01, 0x00, 0x00, 0xf4, 0xfc, 0xff, 0xff, 0x58, 0xfd, 0xff, 0xff, 
0x96, 0xfe, 0xff, 0xff, 0x00, 0x00, 0x00, 0x00, 0xb9, 0xfd, 0xff, 0xff, 
0x2a, 0xfb, 0xff, 0xff, 0x92, 0xfd, 0xff, 0xff, 0xaf, 0x01, 0x00, 0x00, 
0x00, 0x00, 0x00, 0x00, 0x2f, 0xfa, 0xff, 0xff, 0x2f, 0x01, 0x00, 0x00, 
0xc1, 0xfe, 0xff, 0xff, 0x97, 0xfd, 0xff, 0xff, 0x56, 0xfe, 0xff, 0xff, 
0x04, 0x00, 0x00, 0x00, 0xc0, 0x00, 0x00, 0x00, 0x7f, 0x5d, 0xf2, 0x33, 
0x0f, 0xd8, 0x7d, 0xda, 0x58, 0xa7, 0xa8, 0xad, 0x02, 0xe5, 0x71, 0xdd, 
0x9b, 0xee, 0xf2, 0xc1, 0xfa, 0xa9, 0x78, 0x56, 0x81, 0xad, 0x7b, 0x6d, 
0xd5, 0x4f, 0x05, 0xf2, 0xe7, 0x19, 0x32, 0xdc, 0x75, 0xc0, 0xef, 0xe9, 
0x70, 0x51, 0x4c, 0x7e, 0x3c, 0x6b, 0xaa, 0xb2, 0x6d, 0xab, 0xf5, 0xd3, 
0xae, 0x4b, 0x45, 0xf5, 0xc7, 0x4f, 0xf2, 0x16, 0x04, 0xc4, 0x7f, 0x1c, 
0xfa, 0x4f, 0x90, 0x32, 0x20, 0x1c, 0xa3, 0x08, 0x81, 0x52, 0x29, 0x97, 
0xf2, 0x19, 0x81, 0xd4, 0xc5, 0xd4, 0x7b, 0xa3, 0x7d, 0x19, 0xaa, 0x20, 
0x8b, 0x5d, 0x37, 0x04, 0xfd, 0x22, 0xe7, 0x85, 0xbc, 0xff, 0x91, 0x3d, 
0xbd, 0xf1, 0x04, 0x63, 0x02, 0x3c, 0x51, 0x09, 0x2d, 0xf0, 0xf2, 0x70, 
0x00, 0x81, 0x6c, 0x02, 0x40, 0xba, 0x14, 0xb5, 0x33, 0x4c, 0xff, 0x14, 
0x50, 0x0e, 0xb8, 0xd1, 0xd3, 0xf0, 0xf5, 0xe3, 0xe8, 0x59, 0xed, 0x9b, 
0x74, 0x43, 0x0c, 0x83, 0x81, 0x29, 0xc7, 0x66, 0x25, 0xbd, 0xb5, 0x08, 
0xad, 0xdc, 0x44, 0x14, 0x60, 0x02, 0x59, 0x29, 0x75, 0xe1, 0xd2, 0x89, 
0x03, 0xd0, 0x70, 0x2b, 0xa4, 0x84, 0x79, 0xb6, 0x1a, 0xfc, 0x6d, 0xd0, 
0xdb, 0xf9, 0x0d, 0xeb, 0x99, 0x7b, 0x57, 0xa2, 0xff, 0x45, 0xfb, 0x79, 
0xd9, 0x81, 0x83, 0x4a, 0x55, 0x2f, 0xa0, 0xb3, 0x22, 0xff, 0xff, 0xff, 
0x04, 0x00, 0x00, 0x00, 0x18, 0x00, 0x00, 0x00, 0x00, 0xff, 0xff, 0xff, 
0xe7, 0x00, 0x00, 0x00, 0xbd, 0x05, 0x00, 0x00, 0xb3, 0xfa, 0xff, 0xff, 
0x58, 0xfd, 0xff, 0xff, 0x72, 0x00, 0x00, 0x00, 0x46, 0xff, 0xff, 0xff, 
0x04, 0x00, 0x00, 0x00, 0x08, 0x00, 0x00, 0x00, 0x01, 0x00, 0x00, 0x00, 
0x02, 0x00, 0x00, 0x00, 0xd8, 0xe7, 0xff, 0xff, 0xdc, 0xe7, 0xff, 0xff, 
0x0f, 0x00, 0x00, 0x00, 0x4d, 0x4c, 0x49, 0x52, 0x20, 0x43, 0x6f, 0x6e, 
0x76, 0x65, 0x72, 0x74, 0x65, 0x64, 0x2e, 0x00, 0x01, 0x00, 0x00, 0x00, 
0x14, 0x00, 0x00, 0x00, 0x00, 0x00, 0x0e, 0x00, 0x18, 0x00, 0x14, 0x00, 
0x10, 0x00, 0x0c, 0x00, 0x08, 0x00, 0x04, 0x00, 0x0e, 0x00, 0x00, 0x00, 
0x14, 0x00, 0x00, 0x00, 0x1c, 0x00, 0x00, 0x00, 0x1c, 0x03, 0x00, 0x00, 
0x20, 0x03, 0x00, 0x00, 0x24, 0x03, 0x00, 0x00, 0x04, 0x00, 0x00, 0x00, 
0x6d, 0x61, 0x69, 0x6e, 0x00, 0x00, 0x00, 0x00, 0x0c, 0x00, 0x00, 0x00, 
0xb8, 0x02, 0x00, 0x00, 0x74, 0x02, 0x00, 0x00, 0x30, 0x02, 0x00, 0x00, 
0xdc, 0x01, 0x00, 0x00, 0x9c, 0x01, 0x00, 0x00, 0x68, 0x01, 0x00, 0x00, 
0x34, 0x01, 0x00, 0x00, 0xf0, 0x00, 0x00, 0x00, 0xbc, 0x00, 0x00, 0x00, 
0x78, 0x00, 0x00, 0x00, 0x40, 0x00, 0x00, 0x00, 0x04, 0x00, 0x00, 0x00, 
0xc6, 0xfd, 0xff, 0xff, 0x1c, 0x00, 0x00, 0x00, 0x00, 0x00, 0x00, 0x09, 
0x1c, 0x00, 0x00, 0x00, 0x20, 0x00, 0x00, 0x00, 0x06, 0x00, 0x00, 0x00, 
0x00, 0x00, 0x06, 0x00, 0x08, 0x00, 0x04, 0x00, 0x06, 0x00, 0x00, 0x00, 
0x00, 0x00, 0x80, 0x3f, 0x01, 0x00, 0x00, 0x00, 0x19, 0x00, 0x00, 0x00, 
0x01, 0x00, 0x00, 0x00, 0x18, 0x00, 0x00, 0x00, 0xfe, 0xfd, 0xff, 0xff, 
0x14, 0x00, 0x00, 0x00, 0x00, 0x00, 0x00, 0x08, 0x10, 0x00, 0x00, 0x00, 
0x14, 0x00, 0x00, 0x00, 0x05, 0x00, 0x00, 0x00, 0xb4, 0xe8, 0xff, 0xff, 
0x01, 0x00, 0x00, 0x00, 0x18, 0x00, 0x00, 0x00, 0x03, 0x00, 0x00, 0x00, 
0x17, 0x00, 0x00, 0x00, 0x03, 0x00, 0x00, 0x00, 0x02, 0x00, 0x00, 0x00, 
0x32, 0xfe, 0xff, 0xff, 0x1c, 0x00, 0x00, 0x00, 0x00, 0x00, 0x00, 0x08, 
0x1c, 0x00, 0x00, 0x00, 0x20, 0x00, 0x00, 0x00, 0x05, 0x00, 0x00, 0x00, 
0x00, 0x00, 0x06, 0x00, 0x08, 0x00, 0x07, 0x00, 0x06, 0x00, 0x00, 0x00, 
0x00, 0x00, 0x00, 0x01, 0x01, 0x00, 0x00, 0x00, 0x17, 0x00, 0x00, 0x00, 
0x03, 0x00, 0x00, 0x00, 0x16, 0x00, 0x00, 0x00, 0x05, 0x00, 0x00, 0x00, 
0x04, 0x00, 0x00, 0x00, 0x72, 0xfe, 0xff, 0xff, 0x14, 0x00, 0x00, 0x00, 
0x00, 0x00, 0x00, 0x1b, 0x10, 0x00, 0x00, 0x00, 0x14, 0x00, 0x00, 0x00, 
0x04, 0x00, 0x00, 0x00, 0x28, 0xe9, 0xff, 0xff, 0x01, 0x00, 0x00, 0x00, 
0x16, 0x00, 0x00, 0x00, 0x02, 0x00, 0x00, 0x00, 0x15, 0x00, 0x00, 0x00, 
0x01, 0x00, 0x00, 0x00, 0xa2, 0xfe, 0xff, 0xff, 0x14, 0x00, 0x00, 0x00, 
0x00, 0x00, 0x00, 0x05, 0x24, 0x00, 0x00, 0x00, 0x28, 0x00, 0x00, 0x00, 
0x03, 0x00, 0x00, 0x00, 0x22, 0xff, 0xff, 0xff, 0x02, 0x00, 0x00, 0x00, 
0x02, 0x00, 0x00, 0x00, 0x02, 0x00, 0x00, 0x00, 0x02, 0x00, 0x00, 0x00, 
0x00, 0x00, 0x00, 0x01, 0x01, 0x00, 0x00, 0x00, 0x15, 0x00, 0x00, 0x00, 
0x01, 0x00, 0x00, 0x00, 0x14, 0x00, 0x00, 0x00, 0xe2, 0xfe, 0xff, 0xff, 
0x14, 0x00, 0x00, 0x00, 0x00, 0x00, 0x00, 0x0b, 0x10, 0x00, 0x00, 0x00, 
0x14, 0x00, 0x00, 0x00, 0x02, 0x00, 0x00, 0x00, 0x98, 0xe9, 0xff, 0xff, 
0x01, 0x00, 0x00, 0x00, 0x14, 0x00, 0x00, 0x00, 0x02, 0x00, 0x00, 0x00, 
0x13, 0x00, 0x00, 0x00, 0x06, 0x00, 0x00, 0x00, 0x12, 0xff, 0xff, 0xff, 
0x14, 0x00, 0x00, 0x00, 0x00, 0x00, 0x00, 0x15, 0x10, 0x00, 0x00, 0x00, 
0x14, 0x00, 0x00, 0x00, 0x01, 0x00, 0x00, 0x00, 0xc8, 0xe9, 0xff, 0xff, 
0x01, 0x00, 0x00, 0x00, 0x13, 0x00, 0x00, 0x00, 0x02, 0x00, 0x00, 0x00, 
0x12, 0x00, 0x00, 0x00, 0x07, 0x00, 0x00, 0x00, 0x02, 0xff, 0xff, 0xff, 
0x10, 0x00, 0x00, 0x00, 0x00, 0x00, 0x00, 0x01, 0x18, 0x00, 0x00, 0x00, 
0x1c, 0x00, 0x00, 0x00, 0xf4, 0xfe, 0xff, 0xff, 0x00, 0x00, 0x00, 0x01, 
0x01, 0x00, 0x00, 0x00, 0x01, 0x00, 0x00, 0x00, 0x01, 0x00, 0x00, 0x00, 
0x12, 0x00, 0x00, 0x00, 0x03, 0x00, 0x00, 0x00, 0x11, 0x00, 0x00, 0x00, 
0x09, 0x00, 0x00, 0x00, 0x08, 0x00, 0x00, 0x00, 0x7e, 0xff, 0xff, 0xff, 
0x24, 0x00, 0x00, 0x00, 0x00, 0x00, 0x00, 0x05, 0x34, 0x00, 0x00, 0x00, 
0x38, 0x00, 0x00, 0x00, 0x03, 0x00, 0x00, 0x00, 0x00, 0x00, 0x0e, 0x00, 
0x18, 0x00, 0x17, 0x00, 0x10, 0x00, 0x0c, 0x00, 0x08, 0x00, 0x04, 0x00, 
0x0e, 0x00, 0x00, 0x00, 0x02, 0x00, 0x00, 0x00, 0x02, 0x00, 0x00, 0x00, 
0x02, 0x00, 0x00, 0x00, 0x02, 0x00, 0x00, 0x00, 0x00, 0x00, 0x00, 0x01, 
0x01, 0x00, 0x00, 0x00, 0x11, 0x00, 0x00, 0x00, 0x01, 0x00, 0x00, 0x00, 
0x10, 0x00, 0x00, 0x00, 0xce, 0xff, 0xff, 0xff, 0x14, 0x00, 0x00, 0x00, 
0x00, 0x00, 0x00, 0x0b, 0x10, 0x00, 0x00, 0x00, 0x14, 0x00, 0x00, 0x00, 
0x02, 0x00, 0x00, 0x00, 0x84, 0xea, 0xff, 0xff, 0x01, 0x00, 0x00, 0x00, 
0x10, 0x00, 0x00, 0x00, 0x02, 0x00, 0x00, 0x00, 0x0f, 0x00, 0x00, 0x00, 
0x0a, 0x00, 0x00, 0x00, 0x00, 0x00, 0x0e, 0x00, 0x18, 0x00, 0x14, 0x00, 
0x10, 0x00, 0x0c, 0x00, 0x0b, 0x00, 0x04, 0x00, 0x0e, 0x00, 0x00, 0x00, 
0x14, 0x00, 0x00, 0x00, 0x00, 0x00, 0x00, 0x15, 0x10, 0x00, 0x00, 0x00, 
0x14, 0x00, 0x00, 0x00, 0x01, 0x00, 0x00, 0x00, 0xc4, 0xea, 0xff, 0xff, 
0x01, 0x00, 0x00, 0x00, 0x0f, 0x00, 0x00, 0x00, 0x02, 0x00, 0x00, 0x00, 
0x0e, 0x00, 0x00, 0x00, 0x0b, 0x00, 0x00, 0x00, 0x00, 0x00, 0x0e, 0x00, 
0x14, 0x00, 0x00, 0x00, 0x10, 0x00, 0x0c, 0x00, 0x0b, 0x00, 0x04, 0x00, 
0x0e, 0x00, 0x00, 0x00, 0x1c, 0x00, 0x00, 0x00, 0x00, 0x00, 0x00, 0x01, 
0x24, 0x00, 0x00, 0x00, 0x28, 0x00, 0x00, 0x00, 0x0c, 0x00, 0x10, 0x00, 
0x00, 0x00, 0x0c, 0x00, 0x08, 0x00, 0x07, 0x00, 0x0c, 0x00, 0x00, 0x00, 
0x00, 0x00, 0x00, 0x01, 0x01, 0x00, 0x00, 0x00, 0x01, 0x00, 0x00, 0x00, 
0x01, 0x00, 0x00, 0x00, 0x0e, 0x00, 0x00, 0x00, 0x03, 0x00, 0x00, 0x00, 
0x00, 0x00, 0x00, 0x00, 0x0d, 0x00, 0x00, 0x00, 0x0c, 0x00, 0x00, 0x00, 
0x01, 0x00, 0x00, 0x00, 0x19, 0x00, 0x00, 0x00, 0x01, 0x00, 0x00, 0x00, 
0x00, 0x00, 0x00, 0x00, 0x1a, 0x00, 0x00, 0x00, 0xf4, 0x14, 0x00, 0x00, 
0x98, 0x14, 0x00, 0x00, 0xe0, 0x13, 0x00, 0x00, 0x3c, 0x13, 0x00, 0x00, 
0x68, 0x11, 0x00, 0x00, 0x8c, 0x0f, 0x00, 0x00, 0x28, 0x0f, 0x00, 0x00, 
0xc4, 0x0e, 0x00, 0x00, 0xf0, 0x0c, 0x00, 0x00, 0x0c, 0x0b, 0x00, 0x00, 
0xa8, 0x0a, 0x00, 0x00, 0x44, 0x0a, 0x00, 0x00, 0x30, 0x09, 0x00, 0x00, 
0x0c, 0x08, 0x00, 0x00, 0x38, 0x07, 0x00, 0x00, 0x94, 0x06, 0x00, 0x00, 
0xf0, 0x05, 0x00, 0x00, 0x54, 0x05, 0x00, 0x00, 0x60, 0x04, 0x00, 0x00, 
0xb4, 0x03, 0x00, 0x00, 0x08, 0x03, 0x00, 0x00, 0x6c, 0x02, 0x00, 0x00, 
0xd8, 0x01, 0x00, 0x00, 0x24, 0x01, 0x00, 0x00, 0x80, 0x00, 0x00, 0x00, 
0x04, 0x00, 0x00, 0x00, 0x8a, 0xeb, 0xff, 0xff, 0x00, 0x00, 0x00, 0x01, 
0x18, 0x00, 0x00, 0x00, 0x20, 0x00, 0x00, 0x00, 0x3c, 0x00, 0x00, 0x00, 
0x1a, 0x00, 0x00, 0x00, 0x00, 0x00, 0x00, 0x09, 0x50, 0x00, 0x00, 0x00, 
0x02, 0x00, 0x00, 0x00, 0xff, 0xff, 0xff, 0xff, 0x06, 0x00, 0x00, 0x00, 
0x6c, 0xeb, 0xff, 0xff, 0x08, 0x00, 0x00, 0x00, 0x10, 0x00, 0x00, 0x00, 
0x01, 0x00, 0x00, 0x00, 0x80, 0xff, 0xff, 0xff, 0xff, 0xff, 0xff, 0xff, 
0x01, 0x00, 0x00, 0x00, 0x00, 0x00, 0x80, 0x3b, 0x1b, 0x00, 0x00, 0x00, 
0x53, 0x74, 0x61, 0x74, 0x65, 0x66, 0x75, 0x6c, 0x50, 0x61, 0x72, 0x74, 
0x69, 0x74, 0x69, 0x6f, 0x6e, 0x65, 0x64, 0x43, 0x61, 0x6c, 0x6c, 0x5f, 
0x31, 0x3a, 0x30, 0x00, 0x02, 0x00, 0x00, 0x00, 0x01, 0x00, 0x00, 0x00, 
0x06, 0x00, 0x00, 0x00, 0x02, 0xec, 0xff, 0xff, 0x00, 0x00, 0x00, 0x01, 
0x18, 0x00, 0x00, 0x00, 0x20, 0x00, 0x00, 0x00, 0x40, 0x00, 0x00, 0x00, 
0x19, 0x00, 0x00, 0x00, 0x00, 0x00, 0x00, 0x09, 0x78, 0x00, 0x00, 0x00, 
0x02, 0x00, 0x00, 0x00, 0xff, 0xff, 0xff, 0xff, 0x06, 0x00, 0x00, 0x00, 
0xe4, 0xeb, 0xff, 0xff, 0x08, 0x00, 0x00, 0x00, 0x14, 0x00, 0x00, 0x00, 
0x01, 0x00, 0x00, 0x00, 0xf3, 0xff, 0xff, 0xff, 0xff, 0xff, 0xff, 0xff, 
0x00, 0x00, 0x00, 0x00, 0x01, 0x00, 0x00, 0x00, 0x1b, 0x3b, 0x97, 0x3b, 
0x3c, 0x00, 0x00, 0x00, 0x73, 0x65, 0x71, 0x75, 0x65, 0x6e, 0x74, 0x69, 
0x61, 0x6c, 0x5f, 0x31, 0x2f, 0x64, 0x65, 0x6e, 0x73, 0x65, 0x5f, 0x31, 
0x5f, 0x32, 0x2f, 0x4d, 0x61, 0x74, 0x4d, 0x75, 0x6c, 0x3b, 0x73, 0x65, 
0x71, 0x75, 0x65, 0x6e, 0x74, 0x69, 0x61, 0x6c, 0x5f, 0x31, 0x2f, 0x64, 
0x65, 0x6e, 0x73, 0x65, 0x5f, 0x31, 0x5f, 0x32, 0x2f, 0x42, 0x69, 0x61, 
0x73, 0x41, 0x64, 0x64, 0x00, 0x00, 0x00, 0x00, 0x02, 0x00, 0x00, 0x00, 
0x01, 0x00, 0x00, 0x00, 0x06, 0x00, 0x00, 0x00, 0xa2, 0xec, 0xff, 0xff, 
0x00, 0x00, 0x00, 0x01, 0x18, 0x00, 0x00, 0x00, 0x20, 0x00, 0x00, 0x00, 
0x3c, 0x00, 0x00, 0x00, 0x18, 0x00, 0x00, 0x00, 0x00, 0x00, 0x00, 0x09, 
0x88, 0x00, 0x00, 0x00, 0x02, 0x00, 0x00, 0x00, 0xff, 0xff, 0xff, 0xff, 
0x20, 0x00, 0x00, 0x00, 0x84, 0xec, 0xff, 0xff, 0x08, 0x00, 0x00, 0x00, 
0x10, 0x00, 0x00, 0x00, 0x01, 0x00, 0x00, 0x00, 0x80, 0xff, 0xff, 0xff, 
0xff, 0xff, 0xff, 0xff, 0x01, 0x00, 0x00, 0x00, 0xfd, 0xc4, 0x59, 0x3b, 
0x52, 0x00, 0x00, 0x00, 0x73, 0x65, 0x71, 0x75, 0x65, 0x6e, 0x74, 0x69, 
0x61, 0x6c, 0x5f, 0x31, 0x2f, 0x64, 0x65, 0x6e, 0x73, 0x65, 0x5f, 0x31, 
0x2f, 0x4d, 0x61, 0x74, 0x4d, 0x75, 0x6c, 0x3b, 0x73, 0x65, 0x71, 0x75, 
0x65, 0x6e, 0x74, 0x69, 0x61, 0x6c, 0x5f, 0x31, 0x2f, 0x64, 0x65, 0x6e, 
0x73, 0x65, 0x5f, 0x31, 0x2f, 0x52, 0x65, 0x6c, 0x75, 0x3b, 0x73, 0x65, 
0x71, 0x75, 0x65, 0x6e, 0x74, 0x69, 0x61, 0x6c, 0x5f, 0x31, 0x2f, 0x64, 
0x65, 0x6e, 0x73, 0x65, 0x5f, 0x31, 0x2f, 0x42, 0x69, 0x61, 0x73, 0x41, 
0x64, 0x64, 0x00, 0x00, 0x02, 0x00, 0x00, 0x00, 0x01, 0x00, 0x00, 0x00, 
0x20, 0x00, 0x00, 0x00, 0x52, 0xed, 0xff, 0xff, 0x00, 0x00, 0x00, 0x01, 
0x18, 0x00, 0x00, 0x00, 0x20, 0x00, 0x00, 0x00, 0x40, 0x00, 0x00, 0x00, 
0x17, 0x00, 0x00, 0x00, 0x00, 0x00, 0x00, 0x09, 0x68, 0x00, 0x00, 0x00, 
0x02, 0x00, 0x00, 0x00, 0xff, 0xff, 0xff, 0xff, 0x20, 0x00, 0x00, 0x00, 
0x34, 0xed, 0xff, 0xff, 0x08, 0x00, 0x00, 0x00, 0x14, 0x00, 0x00, 0x00, 
0x01, 0x00, 0x00, 0x00, 0x97, 0xff, 0xff, 0xff, 0xff, 0xff, 0xff, 0xff, 
0x00, 0x00, 0x00, 0x00, 0x01, 0x00, 0x00, 0x00, 0x39, 0x99, 0xbf, 0x3b, 
0x2c, 0x00, 0x00, 0x00, 0x73, 0x65, 0x71, 0x75, 0x65, 0x6e, 0x74, 0x69, 
0x61, 0x6c, 0x5f, 0x31, 0x2f, 0x67, 0x6c, 0x6f, 0x62, 0x61, 0x6c, 0x5f, 
0x61, 0x76, 0x65, 0x72, 0x61, 0x67, 0x65, 0x5f, 0x70, 0x6f, 0x6f, 0x6c, 
0x69, 0x6e, 0x67, 0x32, 0x64, 0x5f, 0x31, 0x2f, 0x4d, 0x65, 0x61, 0x6e, 
0x00, 0x00, 0x00, 0x00, 0x02, 0x00, 0x00, 0x00, 0x01, 0x00, 0x00, 0x00, 
0x20, 0x00, 0x00, 0x00, 0xe2, 0xed, 0xff, 0xff, 0x00, 0x00, 0x00, 0x01, 
0x18, 0x00, 0x00, 0x00, 0x28, 0x00, 0x00, 0x00, 0x44, 0x00, 0x00, 0x00, 
0x16, 0x00, 0x00, 0x00, 0x00, 0x00, 0x00, 0x09, 0x68, 0x00, 0x00, 0x00, 
0x04, 0x00, 0x00, 0x00, 0xff, 0xff, 0xff, 0xff, 0x10, 0x00, 0x00, 0x00, 
0x08, 0x00, 0x00, 0x00, 0x20, 0x00, 0x00, 0x00, 0xcc, 0xed, 0xff, 0xff, 
0x08, 0x00, 0x00, 0x00, 0x10, 0x00, 0x00, 0x00, 0x01, 0x00, 0x00, 0x00, 
0x92, 0xff, 0xff, 0xff, 0xff, 0xff, 0xff, 0xff, 0x01, 0x00, 0x00, 0x00, 
0x06, 0x67, 0x53, 0x3c, 0x28, 0x00, 0x00, 0x00, 0x73, 0x65, 0x71, 0x75, 
0x65, 0x6e, 0x74, 0x69, 0x61, 0x6c, 0x5f, 0x31, 0x2f, 0x6d, 0x61, 0x78, 
0x5f, 0x70, 0x6f, 0x6f, 0x6c, 0x69, 0x6e, 0x67, 0x32, 0x64, 0x5f, 0x31, 
0x5f, 0x32, 0x2f, 0x4d, 0x61, 0x78, 0x50, 0x6f, 0x6f, 0x6c, 0x32, 0x64, 
0x00, 0x00, 0x00, 0x00, 0x04, 0x00, 0x00, 0x00, 0x01, 0x00, 0x00, 0x00, 
0x10, 0x00, 0x00, 0x00, 0x08, 0x00, 0x00, 0x00, 0x20, 0x00, 0x00, 0x00, 
0x7a, 0xee, 0xff, 0xff, 0x00, 0x00, 0x00, 0x01, 0x18, 0x00, 0x00, 0x00, 
0x28, 0x00, 0x00, 0x00, 0x48, 0x00, 0x00, 0x00, 0x15, 0x00, 0x00, 0x00, 
0x00, 0x00, 0x00, 0x09, 0x78, 0x00, 0x00, 0x00, 0x04, 0x00, 0x00, 0x00, 
0xff, 0xff, 0xff, 0xff, 0x20, 0x00, 0x00, 0x00, 0x10, 0x00, 0x00, 0x00, 
0x20, 0x00, 0x00, 0x00, 0x64, 0xee, 0xff, 0xff, 0x08, 0x00, 0x00, 0x00, 
0x14, 0x00, 0x00, 0x00, 0x01, 0x00, 0x00, 0x00, 0x92, 0xff, 0xff, 0xff, 
0xff, 0xff, 0xff, 0xff, 0x00, 0x00, 0x00, 0x00, 0x01, 0x00, 0x00, 0x00, 
0x06, 0x67, 0x53, 0x3c, 0x34, 0x00, 0x00, 0x00, 0x73, 0x65, 0x71, 0x75, 
0x65, 0x6e, 0x74, 0x69, 0x61, 0x6c, 0x5f, 0x31, 0x2f, 0x62, 0x61, 0x74, 
0x63, 0x68, 0x5f, 0x6e, 0x6f, 0x72, 0x6d, 0x61, 0x6c, 0x69, 0x7a, 0x61, 
0x74, 0x69, 0x6f, 0x6e, 0x5f, 0x31, 0x5f, 0x32, 0x2f, 0x62, 0x61, 0x74, 
0x63, 0x68, 0x6e, 0x6f, 0x72, 0x6d, 0x2f, 0x61, 0x64, 0x64, 0x5f, 0x31, 
0x00, 0x00, 0x00, 0x00, 0x04, 0x00, 0x00, 0x00, 0x01, 0x00, 0x00, 0x00, 
0x20, 0x00, 0x00, 0x00, 0x10, 0x00, 0x00, 0x00, 0x20, 0x00, 0x00, 0x00, 
0x22, 0xef, 0xff, 0xff, 0x00, 0x00, 0x00, 0x01, 0x18, 0x00, 0x00, 0x00, 
0x28, 0x00, 0x00, 0x00, 0x48, 0x00, 0x00, 0x00, 0x14, 0x00, 0x00, 0x00, 
0x00, 0x00, 0x00, 0x09, 0x78, 0x00, 0x00, 0x00, 0x04, 0x00, 0x00, 0x00, 
0xff, 0xff, 0xff, 0xff, 0x20, 0x00, 0x00, 0x00, 0x10, 0x00, 0x00, 0x00, 
0x20, 0x00, 0x00, 0x00, 0x0c, 0xef, 0xff, 0xff, 0x08, 0x00, 0x00, 0x00, 
0x14, 0x00, 0x00, 0x00, 0x01, 0x00, 0x00, 0x00, 0x92, 0xff, 0xff, 0xff, 
0xff, 0xff, 0xff, 0xff, 0x00, 0x00, 0x00, 0x00, 0x01, 0x00, 0x00, 0x00, 
0xfd, 0x84, 0x56, 0x3c, 0x34, 0x00, 0x00, 0x00, 0x73, 0x65, 0x71, 0x75, 
0x65, 0x6e, 0x74, 0x69, 0x61, 0x6c, 0x5f, 0x31, 0x2f, 0x62, 0x61, 0x74, 
0x63, 0x68, 0x5f, 0x6e, 0x6f, 0x72, 0x6d, 0x61, 0x6c, 0x69, 0x7a, 0x61, 
0x74, 0x69, 0x6f, 0x6e, 0x5f, 0x31, 0x5f, 0x32, 0x2f, 0x62, 0x61, 0x74, 
0x63, 0x68, 0x6e, 0x6f, 0x72, 0x6d, 0x2f, 0x6d, 0x75, 0x6c, 0x5f, 0x31, 
0x00, 0x00, 0x00, 0x00, 0x04, 0x00, 0x00, 0x00, 0x01, 0x00, 0x00, 0x00, 
0x20, 0x00, 0x00, 0x00, 0x10, 0x00, 0x00, 0x00, 0x20, 0x00, 0x00, 0x00, 
0xca, 0xef, 0xff, 0xff, 0x00, 0x00, 0x00, 0x01, 0x18, 0x00, 0x00, 0x00, 
0x28, 0x00, 0x00, 0x00, 0x44, 0x00, 0x00, 0x00, 0x13, 0x00, 0x00, 0x00, 
0x00, 0x00, 0x00, 0x09, 0xc0, 0x00, 0x00, 0x00, 0x04, 0x00, 0x00, 0x00, 
0xff, 0xff, 0xff, 0xff, 0x20, 0x00, 0x00, 0x00, 0x10, 0x00, 0x00, 0x00, 
0x20, 0x00, 0x00, 0x00, 0xb4, 0xef, 0xff, 0xff, 0x08, 0x00, 0x00, 0x00, 
0x10, 0x00, 0x00, 0x00, 0x01, 0x00, 0x00, 0x00, 0x80, 0xff, 0xff, 0xff, 
0xff, 0xff, 0xff, 0xff, 0x01, 0x00, 0x00, 0x00, 0xac, 0x57, 0x47, 0x3c, 
0x80, 0x00, 0x00, 0x00, 0x73, 0x65, 0x71, 0x75, 0x65, 0x6e, 0x74, 0x69, 
0x61, 0x6c, 0x5f, 0x31, 0x2f, 0x63, 0x6f, 0x6e, 0x76, 0x32, 0x64, 0x5f, 
0x31, 0x5f, 0x32, 0x2f, 0x52, 0x65, 0x6c, 0x75, 0x3b, 0x73, 0x65, 0x71, 
0x75, 0x65, 0x6e, 0x74, 0x69, 0x61, 0x6c, 0x5f, 0x31, 0x2f, 0x63, 0x6f, 
0x6e, 0x76, 0x32, 0x64, 0x5f, 0x31, 0x5f, 0x32, 0x2f, 0x42, 0x69, 0x61, 
0x73, 0x41, 0x64, 0x64, 0x3b, 0x73, 0x65, 0x71, 0x75, 0x65, 0x6e, 0x74, 
0x69, 0x61, 0x6c, 0x5f, 0x31, 0x2f, 0x63, 0x6f, 0x6e, 0x76, 0x32, 0x64, 
0x5f, 0x31, 0x5f, 0x32, 0x2f, 0x63, 0x6f, 0x6e, 0x76, 0x6f, 0x6c, 0x75, 
0x74, 0x69, 0x6f, 0x6e, 0x3b, 0x73, 0x65, 0x71, 0x75, 0x65, 0x6e, 0x74, 
0x69, 0x61, 0x6c, 0x5f, 0x31, 0x2f, 0x63, 0x6f, 0x6e, 0x76, 0x32, 0x64, 
0x5f, 0x31, 0x5f, 0x32, 0x2f, 0x53, 0x71, 0x75, 0x65, 0x65, 0x7a, 0x65, 
0x00, 0x00, 0x00, 0x00, 0x04, 0x00, 0x00, 0x00, 0x01, 0x00, 0x00, 0x00, 
0x20, 0x00, 0x00, 0x00, 0x10, 0x00, 0x00, 0x00, 0x20, 0x00, 0x00, 0x00, 
0xba, 0xf0, 0xff, 0xff, 0x00, 0x00, 0x00, 0x01, 0x18, 0x00, 0x00, 0x00, 
0x28, 0x00, 0x00, 0x00, 0x48, 0x00, 0x00, 0x00, 0x12, 0x00, 0x00, 0x00, 
0x00, 0x00, 0x00, 0x09, 0x68, 0x00, 0x00, 0x00, 0x04, 0x00, 0x00, 0x00, 
0xff, 0xff, 0xff, 0xff, 0x20, 0x00, 0x00, 0x00, 0x10, 0x00, 0x00, 0x00, 
0x10, 0x00, 0x00, 0x00, 0xa4, 0xf0, 0xff, 0xff, 0x08, 0x00, 0x00, 0x00, 
0x14, 0x00, 0x00, 0x00, 0x01, 0x00, 0x00, 0x00, 0x8a, 0xff, 0xff, 0xff, 
0xff, 0xff, 0xff, 0xff, 0x00, 0x00, 0x00, 0x00, 0x01, 0x00, 0x00, 0x00, 
0x70, 0x4a, 0x39, 0x3c, 0x26, 0x00, 0x00, 0x00, 0x73, 0x65, 0x71, 0x75, 
0x65, 0x6e, 0x74, 0x69, 0x61, 0x6c, 0x5f, 0x31, 0x2f, 0x6d, 0x61, 0x78, 
0x5f, 0x70, 0x6f, 0x6f, 0x6c, 0x69, 0x6e, 0x67, 0x32, 0x64, 0x5f, 0x31, 
0x2f, 0x4d, 0x61, 0x78, 0x50, 0x6f, 0x6f, 0x6c, 0x32, 0x64, 0x00, 0x00, 
0x04, 0x00, 0x00, 0x00, 0x01, 0x00, 0x00, 0x00, 0x20, 0x00, 0x00, 0x00, 
0x10, 0x00, 0x00, 0x00, 0x10, 0x00, 0x00, 0x00, 0x52, 0xf1, 0xff, 0xff, 
0x00, 0x00, 0x00, 0x01, 0x18, 0x00, 0x00, 0x00, 0x28, 0x00, 0x00, 0x00, 
0x44, 0x00, 0x00, 0x00, 0x11, 0x00, 0x00, 0x00, 0x00, 0x00, 0x00, 0x09, 
0x70, 0x00, 0x00, 0x00, 0x04, 0x00, 0x00, 0x00, 0xff, 0xff, 0xff, 0xff, 
0x40, 0x00, 0x00, 0x00, 0x20, 0x00, 0x00, 0x00, 0x10, 0x00, 0x00, 0x00, 
0x3c, 0xf1, 0xff, 0xff, 0x08, 0x00, 0x00, 0x00, 0x10, 0x00, 0x00, 0x00, 
0x01, 0x00, 0x00, 0x00, 0x8a, 0xff, 0xff, 0xff, 0xff, 0xff, 0xff, 0xff, 
0x01, 0x00, 0x00, 0x00, 0x70, 0x4a, 0x39, 0x3c, 0x32, 0x00, 0x00, 0x00, 
0x73, 0x65, 0x71, 0x75, 0x65, 0x6e, 0x74, 0x69, 0x61, 0x6c, 0x5f, 0x31, 
0x2f, 0x62, 0x61, 0x74, 0x63, 0x68, 0x5f, 0x6e, 0x6f, 0x72, 0x6d, 0x61, 
0x6c, 0x69, 0x7a, 0x61, 0x74, 0x69, 0x6f, 0x6e, 0x5f, 0x31, 0x2f, 0x62, 
0x61, 0x74, 0x63, 0x68, 0x6e, 0x6f, 0x72, 0x6d, 0x2f, 0x61, 0x64, 0x64, 
0x5f, 0x31, 0x00, 0x00, 0x04, 0x00, 0x00, 0x00, 0x01, 0x00, 0x00, 0x00, 
0x40, 0x00, 0x00, 0x00, 0x20, 0x00, 0x00, 0x00, 0x10, 0x00, 0x00, 0x00, 
0xf2, 0xf1, 0xff, 0xff, 0x00, 0x00, 0x00, 0x01, 0x18, 0x00, 0x00, 0x00, 
0x28, 0x00, 0x00, 0x00, 0x44, 0x00, 0x00, 0x00, 0x10, 0x00, 0x00, 0x00, 
0x00, 0x00, 0x00, 0x09, 0x70, 0x00, 0x00, 0x00, 0x04, 0x00, 0x00, 0x00, 
0xff, 0xff, 0xff, 0xff, 0x40, 0x00, 0x00, 0x00, 0x20, 0x00, 0x00, 0x00, 
0x10, 0x00, 0x00, 0x00, 0xdc, 0xf1, 0xff, 0xff, 0x08, 0x00, 0x00, 0x00, 
0x10, 0x00, 0x00, 0x00, 0x01, 0x00, 0x00, 0x00, 0x8a, 0xff, 0xff, 0xff, 
0xff, 0xff, 0xff, 0xff, 0x01, 0x00, 0x00, 0x00, 0xfe, 0x3b, 0x3a, 0x3c, 
0x32, 0x00, 0x00, 0x00, 0x73, 0x65, 0x71, 0x75, 0x65, 0x6e, 0x74, 0x69, 
0x61, 0x6c, 0x5f, 0x31, 0x2f, 0x62, 0x61, 0x74, 0x63, 0x68, 0x5f, 0x6e, 
0x6f, 0x72, 0x6d, 0x61, 0x6c, 0x69, 0x7a, 0x61, 0x74, 0x69, 0x6f, 0x6e, 
0x5f, 0x31, 0x2f, 0x62, 0x61, 0x74, 0x63, 0x68, 0x6e, 0x6f, 0x72, 0x6d, 
0x2f, 0x6d, 0x75, 0x6c, 0x5f, 0x31, 0x00, 0x00, 0x04, 0x00, 0x00, 0x00, 
0x01, 0x00, 0x00, 0x00, 0x40, 0x00, 0x00, 0x00, 0x20, 0x00, 0x00, 0x00, 
0x10, 0x00, 0x00, 0x00, 0x92, 0xf2, 0xff, 0xff, 0x00, 0x00, 0x00, 0x01, 
0x18, 0x00, 0x00, 0x00, 0x28, 0x00, 0x00, 0x00, 0x48, 0x00, 0x00, 0x00, 
0x0f, 0x00, 0x00, 0x00, 0x00, 0x00, 0x00, 0x09, 0xa0, 0x00, 0x00, 0x00, 
0x04, 0x00, 0x00, 0x00, 0xff, 0xff, 0xff, 0xff, 0x40, 0x00, 0x00, 0x00, 
0x20, 0x00, 0x00, 0x00, 0x10, 0x00, 0x00, 0x00, 0x7c, 0xf2, 0xff, 0xff, 
0x08, 0x00, 0x00, 0x00, 0x14, 0x00, 0x00, 0x00, 0x01, 0x00, 0x00, 0x00, 
0x80, 0xff, 0xff, 0xff, 0xff, 0xff, 0xff, 0xff, 0x00, 0x00, 0x00, 0x00, 
0x01, 0x00, 0x00, 0x00, 0x40, 0xbc, 0x32, 0x3c, 0x5c, 0x00, 0x00, 0x00, 
0x73, 0x65, 0x71, 0x75, 0x65, 0x6e, 0x74, 0x69, 0x61, 0x6c, 0x5f, 0x31, 
0x2f, 0x63, 0x6f, 0x6e, 0x76, 0x32, 0x64, 0x5f, 0x31, 0x2f, 0x52, 0x65, 
0x6c, 0x75, 0x3b, 0x73, 0x65, 0x71, 0x75, 0x65, 0x6e, 0x74, 0x69, 0x61, 
0x6c, 0x5f, 0x31, 0x2f, 0x63, 0x6f, 0x6e, 0x76, 0x32, 0x64, 0x5f, 0x31, 
0x2f, 0x42, 0x69, 0x61, 0x73, 0x41, 0x64, 0x64, 0x3b, 0x73, 0x65, 0x71, 
0x75, 0x65, 0x6e, 0x74, 0x69, 0x61, 0x6c, 0x5f, 0x31, 0x2f, 0x63, 0x6f, 
0x6e, 0x76, 0x32, 0x64, 0x5f, 0x31, 0x2f, 0x63, 0x6f, 0x6e, 0x76, 0x6f, 
0x6c, 0x75, 0x74, 0x69, 0x6f, 0x6e, 0x3b, 0x31, 0x00, 0x00, 0x00, 0x00, 
0x04, 0x00, 0x00, 0x00, 0x01, 0x00, 0x00, 0x00, 0x40, 0x00, 0x00, 0x00, 
0x20, 0x00, 0x00, 0x00, 0x10, 0x00, 0x00, 0x00, 0xba, 0xf3, 0xff, 0xff, 
0x00, 0x00, 0x00, 0x01, 0x14, 0x00, 0x00, 0x00, 0xe8, 0x00, 0x00, 0x00, 
0x0e, 0x00, 0x00, 0x00, 0x00, 0x00, 0x00, 0x09, 0xf4, 0x00, 0x00, 0x00, 
0x34, 0xf3, 0xff, 0xff, 0x08, 0x00, 0x00, 0x00, 0x8c, 0x00, 0x00, 0x00, 
0x10, 0x00, 0x00, 0x00, 0x00, 0x00, 0x00, 0x00, 0x00, 0x00, 0x00, 0x00, 
0x00, 0x00, 0x00, 0x00, 0x00, 0x00, 0x00, 0x00, 0x00, 0x00, 0x00, 0x00, 
0x00, 0x00, 0x00, 0x00, 0x00, 0x00, 0x00, 0x00, 0x00, 0x00, 0x00, 0x00, 
0x00, 0x00, 0x00, 0x00, 0x00, 0x00, 0x00, 0x00, 0x00, 0x00, 0x00, 0x00, 
0x00, 0x00, 0x00, 0x00, 0x00, 0x00, 0x00, 0x00, 0x00, 0x00, 0x00, 0x00, 
0x00, 0x00, 0x00, 0x00, 0x00, 0x00, 0x00, 0x00, 0x00, 0x00, 0x00, 0x00, 
0x00, 0x00, 0x00, 0x00, 0x00, 0x00, 0x00, 0x00, 0x00, 0x00, 0x00, 0x00, 
0x00, 0x00, 0x00, 0x00, 0x00, 0x00, 0x00, 0x00, 0x00, 0x00, 0x00, 0x00, 
0x00, 0x00, 0x00, 0x00, 0x00, 0x00, 0x00, 0x00, 0x00, 0x00, 0x00, 0x00, 
0x00, 0x00, 0x00, 0x00, 0x00, 0x00, 0x00, 0x00, 0x00, 0x00, 0x00, 0x00, 
0x00, 0x00, 0x00, 0x00, 0x00, 0x00, 0x00, 0x00, 0x00, 0x00, 0x00, 0x00, 
0x00, 0x00, 0x00, 0x00, 0x10, 0x00, 0x00, 0x00, 0x04, 0xc7, 0xb6, 0x3a, 
0xf2, 0x8d, 0xc0, 0x3a, 0xdf, 0x98, 0xa7, 0x3a, 0x42, 0xa0, 0xcd, 0x3a, 
0x49, 0x53, 0xd0, 0x3a, 0xf3, 0x56, 0xc1, 0x3a, 0x2a, 0x70, 0xbc, 0x3a, 
0x00, 0xe4, 0xc6, 0x3a, 0xa6, 0xd8, 0xb4, 0x3a, 0x75, 0xaf, 0xc0, 0x3a, 
0xa9, 0x19, 0xc5, 0x3a, 0x45, 0x17, 0xad, 0x3a, 0x73, 0x91, 0xb9, 0x3a, 
0xb6, 0xa0, 0xc5, 0x3a, 0x43, 0x65, 0xc0, 0x3a, 0x6c, 0xd2, 0xca, 0x3a, 
0x13, 0x00, 0x00, 0x00, 0x74, 0x66, 0x6c, 0x2e, 0x70, 0x73, 0x65, 0x75, 
0x64, 0x6f, 0x5f, 0x71, 0x63, 0x6f, 0x6e, 0x73, 0x74, 0x31, 0x31, 0x00, 
0x04, 0x00, 0x00, 0x00, 0x10, 0x00, 0x00, 0x00, 0x03, 0x00, 0x00, 0x00, 
0x03, 0x00, 0x00, 0x00, 0x01, 0x00, 0x00, 0x00, 0xda, 0xf4, 0xff, 0xff, 
0x00, 0x00, 0x00, 0x01, 0x14, 0x00, 0x00, 0x00, 0xe4, 0x00, 0x00, 0x00, 
0x0d, 0x00, 0x00, 0x00, 0x00, 0x00, 0x00, 0x02, 0xf0, 0x00, 0x00, 0x00, 
0x54, 0xf4, 0xff, 0xff, 0x08, 0x00, 0x00, 0x00, 0x88, 0x00, 0x00, 0x00, 
0x10, 0x00, 0x00, 0x00, 0x00, 0x00, 0x00, 0x00, 0x00, 0x00, 0x00, 0x00, 
0x00, 0x00, 0x00, 0x00, 0x00, 0x00, 0x00, 0x00, 0x00, 0x00, 0x00, 0x00, 
0x00, 0x00, 0x00, 0x00, 0x00, 0x00, 0x00, 0x00, 0x00, 0x00, 0x00, 0x00, 
0x00, 0x00, 0x00, 0x00, 0x00, 0x00, 0x00, 0x00, 0x00, 0x00, 0x00, 0x00, 
0x00, 0x00, 0x00, 0x00, 0x00, 0x00, 0x00, 0x00, 0x00, 0x00, 0x00, 0x00, 
0x00, 0x00, 0x00, 0x00, 0x00, 0x00, 0x00, 0x00, 0x00, 0x00, 0x00, 0x00, 
0x00, 0x00, 0x00, 0x00, 0x00, 0x00, 0x00, 0x00, 0x00, 0x00, 0x00, 0x00, 
0x00, 0x00, 0x00, 0x00, 0x00, 0x00, 0x00, 0x00, 0x00, 0x00, 0x00, 0x00, 
0x00, 0x00, 0x00, 0x00, 0x00, 0x00, 0x00, 0x00, 0x00, 0x00, 0x00, 0x00, 
0x00, 0x00, 0x00, 0x00, 0x00, 0x00, 0x00, 0x00, 0x00, 0x00, 0x00, 0x00, 
0x00, 0x00, 0x00, 0x00, 0x00, 0x00, 0x00, 0x00, 0x00, 0x00, 0x00, 0x00, 
0x10, 0x00, 0x00, 0x00, 0x32, 0x14, 0x04, 0x38, 0xde, 0x24, 0x0b, 0x38, 
0xf8, 0x37, 0xf2, 0x37, 0xfc, 0x96, 0x14, 0x38, 0x56, 0x8a, 0x16, 0x38, 
0x1e, 0xb6, 0x0b, 0x38, 0x62, 0x2b, 0x08, 0x38, 0x00, 0xb9, 0x0f, 0x38, 
0xf5, 0xae, 0x02, 0x38, 0x15, 0x3d, 0x0b, 0x38, 0xcb, 0x6d, 0x0e, 0x38, 
0x8f, 0x28, 0xfa, 0x37, 0x76, 0x18, 0x06, 0x38, 0x62, 0xcf, 0x0e, 0x38, 
0x78, 0x07, 0x0b, 0x38, 0x43, 0x90, 0x12, 0x38, 0x13, 0x00, 0x00, 0x00, 
0x74, 0x66, 0x6c, 0x2e, 0x70, 0x73, 0x65, 0x75, 0x64, 0x6f, 0x5f, 0x71, 
0x63, 0x6f, 0x6e, 0x73, 0x74, 0x31, 0x30, 0x00, 0x01, 0x00, 0x00, 0x00, 
0x10, 0x00, 0x00, 0x00, 0xea, 0xf5, 0xff, 0xff, 0x00, 0x00, 0x00, 0x01, 
0x14, 0x00, 0x00, 0x00, 0x34, 0x00, 0x00, 0x00, 0x0c, 0x00, 0x00, 0x00, 
0x00, 0x00, 0x00, 0x09, 0x40, 0x00, 0x00, 0x00, 0x64, 0xf5, 0xff, 0xff, 
0x08, 0x00, 0x00, 0x00, 0x14, 0x00, 0x00, 0x00, 0x01, 0x00, 0x00, 0x00, 
0x80, 0xff, 0xff, 0xff, 0xff, 0xff, 0xff, 0xff, 0x00, 0x00, 0x00, 0x00, 
0x01, 0x00, 0x00, 0x00, 0x58, 0x12, 0xa2, 0x3b, 0x12, 0x00, 0x00, 0x00, 
0x74, 0x66, 0x6c, 0x2e, 0x70, 0x73, 0x65, 0x75, 0x64, 0x6f, 0x5f, 0x71, 
0x63, 0x6f, 0x6e, 0x73, 0x74, 0x39, 0x00, 0x00, 0x01, 0x00, 0x00, 0x00, 
0x10, 0x00, 0x00, 0x00, 0x4a, 0xf6, 0xff, 0xff, 0x00, 0x00, 0x00, 0x01, 
0x14, 0x00, 0x00, 0x00, 0x34, 0x00, 0x00, 0x00, 0x0b, 0x00, 0x00, 0x00, 
0x00, 0x00, 0x00, 0x09, 0x40, 0x00, 0x00, 0x00, 0xc4, 0xf5, 0xff, 0xff, 
0x08, 0x00, 0x00, 0x00, 0x14, 0x00, 0x00, 0x00, 0x01, 0x00, 0x00, 0x00, 
0x68, 0x00, 0x00, 0x00, 0x00, 0x00, 0x00, 0x00, 0x00, 0x00, 0x00, 0x00, 
0x01, 0x00, 0x00, 0x00, 0x6b, 0xed, 0x03, 0x3a, 0x12, 0x00, 0x00, 0x00, 
0x74, 0x66, 0x6c, 0x2e, 0x70, 0x73, 0x65, 0x75, 0x64, 0x6f, 0x5f, 0x71, 
0x63, 0x6f, 0x6e, 0x73, 0x74, 0x38, 0x00, 0x00, 0x01, 0x00, 0x00, 0x00, 
0x10, 0x00, 0x00, 0x00, 0xaa, 0xf6, 0xff, 0xff, 0x00, 0x00, 0x00, 0x01, 
0x14, 0x00, 0x00, 0x00, 0xa8, 0x01, 0x00, 0x00, 0x0a, 0x00, 0x00, 0x00, 
0x00, 0x00, 0x00, 0x09, 0xb4, 0x01, 0x00, 0x00, 0x24, 0xf6, 0xff, 0xff, 
0x08, 0x00, 0x00, 0x00, 0x0c, 0x01, 0x00, 0x00, 0x20, 0x00, 0x00, 0x00, 
0x00, 0x00, 0x00, 0x00, 0x00, 0x00, 0x00, 0x00, 0x00, 0x00, 0x00, 0x00, 
0x00, 0x00, 0x00, 0x00, 0x00, 0x00, 0x00, 0x00, 0x00, 0x00, 0x00, 0x00, 
0x00, 0x00, 0x00, 0x00, 0x00, 0x00, 0x00, 0x00, 0x00, 0x00, 0x00, 0x00, 
0x00, 0x00, 0x00, 0x00, 0x00, 0x00, 0x00, 0x00, 0x00, 0x00, 0x00, 0x00, 
0x00, 0x00, 0x00, 0x00, 0x00, 0x00, 0x00, 0x00, 0x00, 0x00, 0x00, 0x00, 
0x00, 0x00, 0x00, 0x00, 0x00, 0x00, 0x00, 0x00, 0x00, 0x00, 0x00, 0x00, 
0x00, 0x00, 0x00, 0x00, 0x00, 0x00, 0x00, 0x00, 0x00, 0x00, 0x00, 0x00, 
0x00, 0x00, 0x00, 0x00, 0x00, 0x00, 0x00, 0x00, 0x00, 0x00, 0x00, 0x00, 
0x00, 0x00, 0x00, 0x00, 0x00, 0x00, 0x00, 0x00, 0x00, 0x00, 0x00, 0x00, 
0x00, 0x00, 0x00, 0x00, 0x00, 0x00, 0x00, 0x00, 0x00, 0x00, 0x00, 0x00, 
0x00, 0x00, 0x00, 0x00, 0x00, 0x00, 0x00, 0x00, 0x00, 0x00, 0x00, 0x00, 
0x00, 0x00, 0x00, 0x00, 0x00, 0x00, 0x00, 0x00, 0x00, 0x00, 0x00, 0x00, 
0x00, 0x00, 0x00, 0x00, 0x00, 0x00, 0x00, 0x00, 0x00, 0x00, 0x00, 0x00, 
0x00, 0x00, 0x00, 0x00, 0x00, 0x00, 0x00, 0x00, 0x00, 0x00, 0x00, 0x00, 
0x00, 0x00, 0x00, 0x00, 0x00, 0x00, 0x00, 0x00, 0x00, 0x00, 0x00, 0x00, 
0x00, 0x00, 0x00, 0x00, 0x00, 0x00, 0x00, 0x00, 0x00, 0x00, 0x00, 0x00, 
0x00, 0x00, 0x00, 0x00, 0x00, 0x00, 0x00, 0x00, 0x00, 0x00, 0x00, 0x00, 
0x00, 0x00, 0x00, 0x00, 0x00, 0x00, 0x00, 0x00, 0x00, 0x00, 0x00, 0x00, 
0x00, 0x00, 0x00, 0x00, 0x00, 0x00, 0x00, 0x00, 0x00, 0x00, 0x00, 0x00, 
0x00, 0x00, 0x00, 0x00, 0x00, 0x00, 0x00, 0x00, 0x00, 0x00, 0x00, 0x00, 
0x00, 0x00, 0x00, 0x00, 0x00, 0x00, 0x00, 0x00, 0x00, 0x00, 0x00, 0x00, 
0x00, 0x00, 0x00, 0x00, 0x00, 0x00, 0x00, 0x00, 0x20, 0x00, 0x00, 0x00, 
0xc6, 0xf2, 0x86, 0x3a, 0x60, 0xe2, 0x80, 0x3a, 0x91, 0xc3, 0x87, 0x3a, 
0xf8, 0x1b, 0x84, 0x3a, 0x7a, 0xd2, 0x84, 0x3a, 0x0c, 0x7c, 0x8a, 0x3a, 
0x94, 0xe8, 0x84, 0x3a, 0xb1, 0x89, 0x86, 0x3a, 0xab, 0x34, 0x85, 0x3a, 
0x3e, 0x99, 0x89, 0x3a, 0xb9, 0x02, 0x80, 0x3a, 0x1d, 0x7a, 0x80, 0x3a, 
0xea, 0xa7, 0x87, 0x3a, 0xf4, 0x77, 0x7d, 0x3a, 0xc5, 0x63, 0x88, 0x3a, 
0xa2, 0x00, 0x85, 0x3a, 0x7d, 0x62, 0x7d, 0x3a, 0x17, 0x9b, 0x84, 0x3a, 
0x75, 0x99, 0x7b, 0x3a, 0xa0, 0x50, 0x87, 0x3a, 0xcc, 0x0b, 0x8e, 0x3a, 
0x65, 0x98, 0x80, 0x3a, 0xd8, 0x0f, 0x86, 0x3a, 0xa5, 0x64, 0x83, 0x3a, 
0x68, 0xbf, 0x87, 0x3a, 0x6c, 0x00, 0x84, 0x3a, 0xaf, 0x22, 0x79, 0x3a, 
0x3a, 0xc8, 0x87, 0x3a, 0xab, 0xa4, 0x82, 0x3a, 0x6d, 0x46, 0x84, 0x3a, 
0xd2, 0x80, 0x88, 0x3a, 0xb4, 0xc1, 0x73, 0x3a, 0x12, 0x00, 0x00, 0x00, 
0x74, 0x66, 0x6c, 0x2e, 0x70, 0x73, 0x65, 0x75, 0x64, 0x6f, 0x5f, 0x71, 
0x63, 0x6f, 0x6e, 0x73, 0x74, 0x37, 0x00, 0x00, 0x04, 0x00, 0x00, 0x00, 
0x20, 0x00, 0x00, 0x00, 0x03, 0x00, 0x00, 0x00, 0x03, 0x00, 0x00, 0x00, 
0x10, 0x00, 0x00, 0x00, 0x8a, 0xf8, 0xff, 0xff, 0x00, 0x00, 0x00, 0x01, 
0x14, 0x00, 0x00, 0x00, 0xa4, 0x01, 0x00, 0x00, 0x09, 0x00, 0x00, 0x00, 
0x00, 0x00, 0x00, 0x02, 0xb0, 0x01, 0x00, 0x00, 0x04, 0xf8, 0xff, 0xff, 
0x08, 0x00, 0x00, 0x00, 0x08, 0x01, 0x00, 0x00, 0x20, 0x00, 0x00, 0x00, 
0x00, 0x00, 0x00, 0x00, 0x00, 0x00, 0x00, 0x00, 0x00, 0x00, 0x00, 0x00, 
0x00, 0x00, 0x00, 0x00, 0x00, 0x00, 0x00, 0x00, 0x00, 0x00, 0x00, 0x00, 
0x00, 0x00, 0x00, 0x00, 0x00, 0x00, 0x00, 0x00, 0x00, 0x00, 0x00, 0x00, 
0x00, 0x00, 0x00, 0x00, 0x00, 0x00, 0x00, 0x00, 0x00, 0x00, 0x00, 0x00, 
0x00, 0x00, 0x00, 0x00, 0x00, 0x00, 0x00, 0x00, 0x00, 0x00, 0x00, 0x00, 
0x00, 0x00, 0x00, 0x00, 0x00, 0x00, 0x00, 0x00, 0x00, 0x00, 0x00, 0x00, 
0x00, 0x00, 0x00, 0x00, 0x00, 0x00, 0x00, 0x00, 0x00, 0x00, 0x00, 0x00, 
0x00, 0x00, 0x00, 0x00, 0x00, 0x00, 0x00, 0x00, 0x00, 0x00, 0x00, 0x00, 
0x00, 0x00, 0x00, 0x00, 0x00, 0x00, 0x00, 0x00, 0x00, 0x00, 0x00, 0x00, 
0x00, 0x00, 0x00, 0x00, 0x00, 0x00, 0x00, 0x00, 0x00, 0x00, 0x00, 0x00, 
0x00, 0x00, 0x00, 0x00, 0x00, 0x00, 0x00, 0x00, 0x00, 0x00, 0x00, 0x00, 
0x00, 0x00, 0x00, 0x00, 0x00, 0x00, 0x00, 0x00, 0x00, 0x00, 0x00, 0x00, 
0x00, 0x00, 0x00, 0x00, 0x00, 0x00, 0x00, 0x00, 0x00, 0x00, 0x00, 0x00, 
0x00, 0x00, 0x00, 0x00, 0x00, 0x00, 0x00, 0x00, 0x00, 0x00, 0x00, 0x00, 
0x00, 0x00, 0x00, 0x00, 0x00, 0x00, 0x00, 0x00, 0x00, 0x00, 0x00, 0x00, 
0x00, 0x00, 0x00, 0x00, 0x00, 0x00, 0x00, 0x00, 0x00, 0x00, 0x00, 0x00, 
0x00, 0x00, 0x00, 0x00, 0x00, 0x00, 0x00, 0x00, 0x00, 0x00, 0x00, 0x00, 
0x00, 0x00, 0x00, 0x00, 0x00, 0x00, 0x00, 0x00, 0x00, 0x00, 0x00, 0x00, 
0x00, 0x00, 0x00, 0x00, 0x00, 0x00, 0x00, 0x00, 0x00, 0x00, 0x00, 0x00, 
0x00, 0x00, 0x00, 0x00, 0x00, 0x00, 0x00, 0x00, 0x00, 0x00, 0x00, 0x00, 
0x00, 0x00, 0x00, 0x00, 0x00, 0x00, 0x00, 0x00, 0x00, 0x00, 0x00, 0x00, 
0x00, 0x00, 0x00, 0x00, 0x20, 0x00, 0x00, 0x00, 0x5d, 0x59, 0x43, 0x37, 
0x22, 0x92, 0x3a, 0x37, 0x9b, 0x87, 0x44, 0x37, 0x40, 0x3d, 0x3f, 0x37, 
0x72, 0x45, 0x40, 0x37, 0xd2, 0x77, 0x48, 0x37, 0x71, 0x65, 0x40, 0x37, 
0x3f, 0xc1, 0x42, 0x37, 0x96, 0xd3, 0x40, 0x37, 0x81, 0x2f, 0x47, 0x37, 
0x61, 0x4e, 0x39, 0x37, 0x35, 0xfb, 0x39, 0x37, 0x94, 0x5f, 0x44, 0x37, 
0x63, 0x75, 0x37, 0x37, 0x84, 0x6f, 0x45, 0x37, 0x43, 0x88, 0x40, 0x37, 
0xda, 0x65, 0x37, 0x37, 0x45, 0xf5, 0x3f, 0x37, 0x0e, 0x1b, 0x36, 0x37, 
0x38, 0xe1, 0x43, 0x37, 0xa8, 0x9f, 0x4d, 0x37, 0x0b, 0x27, 0x3a, 0x37, 
0xdd, 0x10, 0x42, 0x37, 0xe0, 0x33, 0x3e, 0x37, 0x96, 0x81, 0x44, 0x37, 
0x60, 0x15, 0x3f, 0x37, 0x81, 0x52, 0x34, 0x37, 0x5a, 0x8e, 0x44, 0x37, 
0xf9, 0x1d, 0x3d, 0x37, 0xb6, 0x7a, 0x3f, 0x37, 0x91, 0x99, 0x45, 0x37, 
0xdc, 0x6d, 0x30, 0x37, 0x12, 0x00, 0x00, 0x00, 0x74, 0x66, 0x6c, 0x2e, 
0x70, 0x73, 0x65, 0x75, 0x64, 0x6f, 0x5f, 0x71, 0x63, 0x6f, 0x6e, 0x73, 
0x74, 0x36, 0x00, 0x00, 0x01, 0x00, 0x00, 0x00, 0x20, 0x00, 0x00, 0x00, 
0x5a, 0xfa, 0xff, 0xff, 0x00, 0x00, 0x00, 0x01, 0x14, 0x00, 0x00, 0x00, 
0x34, 0x00, 0x00, 0x00, 0x08, 0x00, 0x00, 0x00, 0x00, 0x00, 0x00, 0x09, 
0x40, 0x00, 0x00, 0x00, 0xd4, 0xf9, 0xff, 0xff, 0x08, 0x00, 0x00, 0x00, 
0x14, 0x00, 0x00, 0x00, 0x01, 0x00, 0x00, 0x00, 0x80, 0xff, 0xff, 0xff, 
0xff, 0xff, 0xff, 0xff, 0x00, 0x00, 0x00, 0x00, 0x01, 0x00, 0x00, 0x00, 
0xee, 0x9a, 0x9e, 0x3b, 0x12, 0x00, 0x00, 0x00, 0x74, 0x66, 0x6c, 0x2e, 
0x70, 0x73, 0x65, 0x75, 0x64, 0x6f, 0x5f, 0x71, 0x63, 0x6f, 0x6e, 0x73, 
0x74, 0x35, 0x00, 0x00, 0x01, 0x00, 0x00, 0x00, 0x20, 0x00, 0x00, 0x00, 
0xba, 0xfa, 0xff, 0xff, 0x00, 0x00, 0x00, 0x01, 0x14, 0x00, 0x00, 0x00, 
0x34, 0x00, 0x00, 0x00, 0x07, 0x00, 0x00, 0x00, 0x00, 0x00, 0x00, 0x09, 
0x40, 0x00, 0x00, 0x00, 0x34, 0xfa, 0xff, 0xff, 0x08, 0x00, 0x00, 0x00, 
0x14, 0x00, 0x00, 0x00, 0x01, 0x00, 0x00, 0x00, 0x7f, 0x00, 0x00, 0x00, 
0x00, 0x00, 0x00, 0x00, 0x00, 0x00, 0x00, 0x00, 0x01, 0x00, 0x00, 0x00, 
0x11, 0xd5, 0x72, 0x3a, 0x12, 0x00, 0x00, 0x00, 0x74, 0x66, 0x6c, 0x2e, 
0x70, 0x73, 0x65, 0x75, 0x64, 0x6f, 0x5f, 0x71, 0x63, 0x6f, 0x6e, 0x73, 
0x74, 0x34, 0x00, 0x00, 0x01, 0x00, 0x00, 0x00, 0x20, 0x00, 0x00, 0x00, 
0x1a, 0xfb, 0xff, 0xff, 0x00, 0x00, 0x00, 0x01, 0x14, 0x00, 0x00, 0x00, 
0xa8, 0x01, 0x00, 0x00, 0x06, 0x00, 0x00, 0x00, 0x00, 0x00, 0x00, 0x09, 
0xb4, 0x01, 0x00, 0x00, 0x94, 0xfa, 0xff, 0xff, 0x08, 0x00, 0x00, 0x00, 
0x0c, 0x01, 0x00, 0x00, 0x20, 0x00, 0x00, 0x00, 0x00, 0x00, 0x00, 0x00, 
0x00, 0x00, 0x00, 0x00, 0x00, 0x00, 0x00, 0x00, 0x00, 0x00, 0x00, 0x00, 
0x00, 0x00, 0x00, 0x00, 0x00, 0x00, 0x00, 0x00, 0x00, 0x00, 0x00, 0x00, 
0x00, 0x00, 0x00, 0x00, 0x00, 0x00, 0x00, 0x00, 0x00, 0x00, 0x00, 0x00, 
0x00, 0x00, 0x00, 0x00, 0x00, 0x00, 0x00, 0x00, 0x00, 0x00, 0x00, 0x00, 
0x00, 0x00, 0x00, 0x00, 0x00, 0x00, 0x00, 0x00, 0x00, 0x00, 0x00, 0x00, 
0x00, 0x00, 0x00, 0x00, 0x00, 0x00, 0x00, 0x00, 0x00, 0x00, 0x00, 0x00, 
0x00, 0x00, 0x00, 0x00, 0x00, 0x00, 0x00, 0x00, 0x00, 0x00, 0x00, 0x00, 
0x00, 0x00, 0x00, 0x00, 0x00, 0x00, 0x00, 0x00, 0x00, 0x00, 0x00, 0x00, 
0x00, 0x00, 0x00, 0x00, 0x00, 0x00, 0x00, 0x00, 0x00, 0x00, 0x00, 0x00, 
0x00, 0x00, 0x00, 0x00, 0x00, 0x00, 0x00, 0x00, 0x00, 0x00, 0x00, 0x00, 
0x00, 0x00, 0x00, 0x00, 0x00, 0x00, 0x00, 0x00, 0x00, 0x00, 0x00, 0x00, 
0x00, 0x00, 0x00, 0x00, 0x00, 0x00, 0x00, 0x00, 0x00, 0x00, 0x00, 0x00, 
0x00, 0x00, 0x00, 0x00, 0x00, 0x00, 0x00, 0x00, 0x00, 0x00, 0x00, 0x00, 
0x00, 0x00, 0x00, 0x00, 0x00, 0x00, 0x00, 0x00, 0x00, 0x00, 0x00, 0x00, 
0x00, 0x00, 0x00, 0x00, 0x00, 0x00, 0x00, 0x00, 0x00, 0x00, 0x00, 0x00, 
0x00, 0x00, 0x00, 0x00, 0x00, 0x00, 0x00, 0x00, 0x00, 0x00, 0x00, 0x00, 
0x00, 0x00, 0x00, 0x00, 0x00, 0x00, 0x00, 0x00, 0x00, 0x00, 0x00, 0x00, 
0x00, 0x00, 0x00, 0x00, 0x00, 0x00, 0x00, 0x00, 0x00, 0x00, 0x00, 0x00, 
0x00, 0x00, 0x00, 0x00, 0x00, 0x00, 0x00, 0x00, 0x00, 0x00, 0x00, 0x00, 
0x00, 0x00, 0x00, 0x00, 0x00, 0x00, 0x00, 0x00, 0x00, 0x00, 0x00, 0x00, 
0x00, 0x00, 0x00, 0x00, 0x00, 0x00, 0x00, 0x00, 0x00, 0x00, 0x00, 0x00, 
0x00, 0x00, 0x00, 0x00, 0x20, 0x00, 0x00, 0x00, 0x03, 0x13, 0x20, 0x3b, 
0x2b, 0xc8, 0x1b, 0x3b, 0x3f, 0xba, 0x1f, 0x3b, 0xf0, 0xf9, 0x12, 0x3b, 
0xf8, 0xc9, 0x1b, 0x3b, 0x1e, 0x96, 0x1a, 0x3b, 0x67, 0x43, 0x1b, 0x3b, 
0x89, 0x71, 0x1e, 0x3b, 0xa2, 0x75, 0x1a, 0x3b, 0x7c, 0xbc, 0x1d, 0x3b, 
0x0f, 0x64, 0x16, 0x3b, 0x6f, 0xde, 0x12, 0x3b, 0xb8, 0x47, 0x19, 0x3b, 
0x53, 0x0c, 0x1b, 0x3b, 0xe2, 0xb2, 0x17, 0x3b, 0x2f, 0xa5, 0x10, 0x3b, 
0x3d, 0x46, 0x18, 0x3b, 0x75, 0x6d, 0x16, 0x3b, 0xbd, 0x55, 0x17, 0x3b, 
0x5f, 0x11, 0x1a, 0x3b, 0x29, 0x7d, 0x1d, 0x3b, 0x82, 0xbd, 0x1b, 0x3b, 
0x4a, 0xf1, 0x12, 0x3b, 0x2c, 0x47, 0x1f, 0x3b, 0xee, 0x20, 0x19, 0x3b, 
0xfc, 0x43, 0x20, 0x3b, 0x5a, 0x0d, 0x1a, 0x3b, 0x31, 0x08, 0x18, 0x3b, 
0xe5, 0x8c, 0x18, 0x3b, 0xf9, 0xeb, 0x1a, 0x3b, 0x46, 0xc9, 0x0f, 0x3b, 
0xa7, 0x9f, 0x16, 0x3b, 0x12, 0x00, 0x00, 0x00, 0x74, 0x66, 0x6c, 0x2e, 
0x70, 0x73, 0x65, 0x75, 0x64, 0x6f, 0x5f, 0x71, 0x63, 0x6f, 0x6e, 0x73, 
0x74, 0x33, 0x00, 0x00, 0x02, 0x00, 0x00, 0x00, 0x20, 0x00, 0x00, 0x00, 
0x20, 0x00, 0x00, 0x00, 0xf2, 0xfc, 0xff, 0xff, 0x00, 0x00, 0x00, 0x01, 
0x14, 0x00, 0x00, 0x00, 0xa4, 0x01, 0x00, 0x00, 0x05, 0x00, 0x00, 0x00, 
0x00, 0x00, 0x00, 0x02, 0xb0, 0x01, 0x00, 0x00, 0x6c, 0xfc, 0xff, 0xff, 
0x08, 0x00, 0x00, 0x00, 0x08, 0x01, 0x00, 0x00, 0x20, 0x00, 0x00, 0x00, 
0x00, 0x00, 0x00, 0x00, 0x00, 0x00, 0x00, 0x00, 0x00, 0x00, 0x00, 0x00, 
0x00, 0x00, 0x00, 0x00, 0x00, 0x00, 0x00, 0x00, 0x00, 0x00, 0x00, 0x00, 
0x00, 0x00, 0x00, 0x00, 0x00, 0x00, 0x00, 0x00, 0x00, 0x00, 0x00, 0x00, 
0x00, 0x00, 0x00, 0x00, 0x00, 0x00, 0x00, 0x00, 0x00, 0x00, 0x00, 0x00, 
0x00, 0x00, 0x00, 0x00, 0x00, 0x00, 0x00, 0x00, 0x00, 0x00, 0x00, 0x00, 
0x00, 0x00, 0x00, 0x00, 0x00, 0x00, 0x00, 0x00, 0x00, 0x00, 0x00, 0x00, 
0x00, 0x00, 0x00, 0x00, 0x00, 0x00, 0x00, 0x00, 0x00, 0x00, 0x00, 0x00, 
0x00, 0x00, 0x00, 0x00, 0x00, 0x00, 0x00, 0x00, 0x00, 0x00, 0x00, 0x00, 
0x00, 0x00, 0x00, 0x00, 0x00, 0x00, 0x00, 0x00, 0x00, 0x00, 0x00, 0x00, 
0x00, 0x00, 0x00, 0x00, 0x00, 0x00, 0x00, 0x00, 0x00, 0x00, 0x00, 0x00, 
0x00, 0x00, 0x00, 0x00, 0x00, 0x00, 0x00, 0x00, 0x00, 0x00, 0x00, 0x00, 
0x00, 0x00, 0x00, 0x00, 0x00, 0x00, 0x00, 0x00, 0x00, 0x00, 0x00, 0x00, 
0x00, 0x00, 0x00, 0x00, 0x00, 0x00, 0x00, 0x00, 0x00, 0x00, 0x00, 0x00, 
0x00, 0x00, 0x00, 0x00, 0x00, 0x00, 0x00, 0x00, 0x00, 0x00, 0x00, 0x00, 
0x00, 0x00, 0x00, 0x00, 0x00, 0x00, 0x00, 0x00, 0x00, 0x00, 0x00, 0x00, 
0x00, 0x00, 0x00, 0x00, 0x00, 0x00, 0x00, 0x00, 0x00, 0x00, 0x00, 0x00, 
0x00, 0x00, 0x00, 0x00, 0x00, 0x00, 0x00, 0x00, 0x00, 0x00, 0x00, 0x00, 
0x00, 0x00, 0x00, 0x00, 0x00, 0x00, 0x00, 0x00, 0x00, 0x00, 0x00, 0x00, 
0x00, 0x00, 0x00, 0x00, 0x00, 0x00, 0x00, 0x00, 0x00, 0x00, 0x00, 0x00, 
0x00, 0x00, 0x00, 0x00, 0x00, 0x00, 0x00, 0x00, 0x00, 0x00, 0x00, 0x00, 
0x00, 0x00, 0x00, 0x00, 0x00, 0x00, 0x00, 0x00, 0x00, 0x00, 0x00, 0x00, 
0x00, 0x00, 0x00, 0x00, 0x20, 0x00, 0x00, 0x00, 0xfc, 0x9b, 0x6f, 0x37, 
0x2b, 0x2f, 0x69, 0x37, 0x1e, 0x17, 0x6f, 0x37, 0xe4, 0x00, 0x5c, 0x37, 
0xdd, 0x31, 0x69, 0x37, 0x0d, 0x65, 0x67, 0x37, 0x6f, 0x68, 0x68, 0x37, 
0x15, 0x2b, 0x6d, 0x37, 0x6d, 0x34, 0x67, 0x37, 0x13, 0x1c, 0x6c, 0x37, 
0x55, 0x1d, 0x61, 0x37, 0xb9, 0xd7, 0x5b, 0x37, 0x81, 0x70, 0x65, 0x37, 
0xfe, 0x15, 0x68, 0x37, 0x85, 0x12, 0x63, 0x37, 0xa2, 0x83, 0x58, 0x37, 
0x17, 0xef, 0x63, 0x37, 0x66, 0x2b, 0x61, 0x37, 0x18, 0x87, 0x62, 0x37, 
0x59, 0x9e, 0x66, 0x37, 0x49, 0xbd, 0x6b, 0x37, 0x36, 0x1f, 0x69, 0x37, 
0xf2, 0xf3, 0x5b, 0x37, 0xde, 0x6a, 0x6e, 0x37, 0x71, 0x36, 0x65, 0x37, 
0x4b, 0xe5, 0x6f, 0x37, 0x55, 0x98, 0x66, 0x37, 0x37, 0x92, 0x63, 0x37, 
0xda, 0x58, 0x64, 0x37, 0x91, 0xe5, 0x67, 0x37, 0x75, 0x3a, 0x57, 0x37, 
0x89, 0x76, 0x61, 0x37, 0x12, 0x00, 0x00, 0x00, 0x74, 0x66, 0x6c, 0x2e, 
0x70, 0x73, 0x65, 0x75, 0x64, 0x6f, 0x5f, 0x71, 0x63, 0x6f, 0x6e, 0x73, 
0x74, 0x32, 0x00, 0x00, 0x01, 0x00, 0x00, 0x00, 0x20, 0x00, 0x00, 0x00, 
0xc2, 0xfe, 0xff, 0xff, 0x00, 0x00, 0x00, 0x01, 0x14, 0x00, 0x00, 0x00, 
0x70, 0x00, 0x00, 0x00, 0x04, 0x00, 0x00, 0x00, 0x00, 0x00, 0x00, 0x09, 
0x7c, 0x00, 0x00, 0x00, 0x3c, 0xfe, 0xff, 0xff, 0x08, 0x00, 0x00, 0x00, 
0x3c, 0x00, 0x00, 0x00, 0x06, 0x00, 0x00, 0x00, 0x00, 0x00, 0x00, 0x00, 
0x00, 0x00, 0x00, 0x00, 0x00, 0x00, 0x00, 0x00, 0x00, 0x00, 0x00, 0x00, 
0x00, 0x00, 0x00, 0x00, 0x00, 0x00, 0x00, 0x00, 0x00, 0x00, 0x00, 0x00, 
0x00, 0x00, 0x00, 0x00, 0x00, 0x00, 0x00, 0x00, 0x00, 0x00, 0x00, 0x00, 
0x00, 0x00, 0x00, 0x00, 0x00, 0x00, 0x00, 0x00, 0x00, 0x00, 0x00, 0x00, 
0x06, 0x00, 0x00, 0x00, 0x7c, 0x96, 0x45, 0x3b, 0xa3, 0x74, 0x40, 0x3b, 
0x42, 0xe1, 0x40, 0x3b, 0x1c, 0xb3, 0x4b, 0x3b, 0x2a, 0x33, 0x4c, 0x3b, 
0x04, 0x7e, 0x3a, 0x3b, 0x12, 0x00, 0x00, 0x00, 0x74, 0x66, 0x6c, 0x2e, 
0x70, 0x73, 0x65, 0x75, 0x64, 0x6f, 0x5f, 0x71, 0x63, 0x6f, 0x6e, 0x73, 
0x74, 0x31, 0x00, 0x00, 0x02, 0x00, 0x00, 0x00, 0x06, 0x00, 0x00, 0x00, 
0x20, 0x00, 0x00, 0x00, 0x62, 0xff, 0xff, 0xff, 0x00, 0x00, 0x00, 0x01, 
0x14, 0x00, 0x00, 0x00, 0x70, 0x00, 0x00, 0x00, 0x03, 0x00, 0x00, 0x00, 
0x00, 0x00, 0x00, 0x02, 0x7c, 0x00, 0x00, 0x00, 0xdc, 0xfe, 0xff, 0xff, 
0x08, 0x00, 0x00, 0x00, 0x3c, 0x00, 0x00, 0x00, 0x06, 0x00, 0x00, 0x00, 
0x00, 0x00, 0x00, 0x00, 0x00, 0x00, 0x00, 0x00, 0x00, 0x00, 0x00, 0x00, 
0x00, 0x00, 0x00, 0x00, 0x00, 0x00, 0x00, 0x00, 0x00, 0x00, 0x00, 0x00, 
0x00, 0x00, 0x00, 0x00, 0x00, 0x00, 0x00, 0x00, 0x00, 0x00, 0x00, 0x00, 
0x00, 0x00, 0x00, 0x00, 0x00, 0x00, 0x00, 0x00, 0x00, 0x00, 0x00, 0x00, 
0x00, 0x00, 0x00, 0x00, 0x06, 0x00, 0x00, 0x00, 0x9a, 0x14, 0x28, 0x37, 
0xf6, 0xb6, 0x23, 0x37, 0x5c, 0x13, 0x24, 0x37, 0x91, 0x47, 0x2d, 0x37, 
0x80, 0xb4, 0x2d, 0x37, 0x52, 0xa4, 0x1e, 0x37, 0x11, 0x00, 0x00, 0x00, 
0x74, 0x66, 0x6c, 0x2e, 0x70, 0x73, 0x65, 0x75, 0x64, 0x6f, 0x5f, 0x71, 
0x63, 0x6f, 0x6e, 0x73, 0x74, 0x00, 0x00, 0x00, 0x01, 0x00, 0x00, 0x00, 
0x06, 0x00, 0x00, 0x00, 0x00, 0x00, 0x16, 0x00, 0x1c, 0x00, 0x18, 0x00, 
0x17, 0x00, 0x10, 0x00, 0x0c, 0x00, 0x08, 0x00, 0x00, 0x00, 0x00, 0x00, 
0x00, 0x00, 0x07, 0x00, 0x16, 0x00, 0x00, 0x00, 0x00, 0x00, 0x00, 0x01, 
0x18, 0x00, 0x00, 0x00, 0x18, 0x00, 0x00, 0x00, 0x02, 0x00, 0x00, 0x00, 
0x00, 0x00, 0x00, 0x02, 0x20, 0x00, 0x00, 0x00, 0x04, 0x00, 0x04, 0x00, 
0x04, 0x00, 0x00, 0x00, 0x0e, 0x00, 0x00, 0x00, 0x61, 0x72, 0x69, 0x74, 
0x68, 0x2e, 0x63, 0x6f, 0x6e, 0x73, 0x74, 0x61, 0x6e, 0x74, 0x00, 0x00, 
0x01, 0x00, 0x00, 0x00, 0x02, 0x00, 0x00, 0x00, 0x00, 0x00, 0x16, 0x00, 
0x20, 0x00, 0x1c, 0x00, 0x1b, 0x00, 0x14, 0x00, 0x10, 0x00, 0x0c, 0x00, 
0x00, 0x00, 0x00, 0x00, 0x08, 0x00, 0x07, 0x00, 0x16, 0x00, 0x00, 0x00, 
0x00, 0x00, 0x00, 0x01, 0x18, 0x00, 0x00, 0x00, 0x34, 0x00, 0x00, 0x00, 
0x50, 0x00, 0x00, 0x00, 0x01, 0x00, 0x00, 0x00, 0x00, 0x00, 0x00, 0x09, 
0x68, 0x00, 0x00, 0x00, 0x04, 0x00, 0x00, 0x00, 0xff, 0xff, 0xff, 0xff, 
0x40, 0x00, 0x00, 0x00, 0x20, 0x00, 0x00, 0x00, 0x01, 0x00, 0x00, 0x00, 
0x0c, 0x00, 0x0c, 0x00, 0x00, 0x00, 0x00, 0x00, 0x08, 0x00, 0x04, 0x00, 
0x0c, 0x00, 0x00, 0x00, 0x08, 0x00, 0x00, 0x00, 0x10, 0x00, 0x00, 0x00, 
0x01, 0x00, 0x00, 0x00, 0x09, 0x00, 0x00, 0x00, 0x00, 0x00, 0x00, 0x00, 
0x01, 0x00, 0x00, 0x00, 0xba, 0xfd, 0xb8, 0x3c, 0x1d, 0x00, 0x00, 0x00, 
0x73, 0x65, 0x72, 0x76, 0x69, 0x6e, 0x67, 0x5f, 0x64, 0x65, 0x66, 0x61, 
0x75, 0x6c, 0x74, 0x5f, 0x69, 0x6e, 0x70, 0x75, 0x74, 0x5f, 0x6c, 0x61, 
0x79, 0x65, 0x72, 0x3a, 0x30, 0x00, 0x00, 0x00, 0x04, 0x00, 0x00, 0x00, 
0x01, 0x00, 0x00, 0x00, 0x40, 0x00, 0x00, 0x00, 0x20, 0x00, 0x00, 0x00, 
0x01, 0x00, 0x00, 0x00, 0x07, 0x00, 0x00, 0x00, 0x94, 0x00, 0x00, 0x00, 
0x74, 0x00, 0x00, 0x00, 0x68, 0x00, 0x00, 0x00, 0x4c, 0x00, 0x00, 0x00, 
0x2c, 0x00, 0x00, 0x00, 0x18, 0x00, 0x00, 0x00, 0x04, 0x00, 0x00, 0x00, 
0x94, 0xff, 0xff, 0xff, 0x19, 0x00, 0x00, 0x00, 0x02, 0x00, 0x00, 0x00, 
0x00, 0x00, 0x00, 0x19, 0xa4, 0xff, 0xff, 0xff, 0x09, 0x00, 0x00, 0x00, 
0x04, 0x00, 0x00, 0x00, 0x00, 0x00, 0x00, 0x09, 0xb4, 0xff, 0xff, 0xff, 
0x28, 0x00, 0x00, 0x00, 0x02, 0x00, 0x00, 0x00, 0x00, 0x00, 0x00, 0x28, 
0x0c, 0x00, 0x0e, 0x00, 0x0d, 0x00, 0x00, 0x00, 0x08, 0x00, 0x04, 0x00, 
0x0c, 0x00, 0x00, 0x00, 0x11, 0x00, 0x00, 0x00, 0x02, 0x00, 0x00, 0x00, 
0x00, 0x11, 0x0a, 0x00, 0x08, 0x00, 0x00, 0x00, 0x00, 0x00, 0x04, 0x00, 
0x0a, 0x00, 0x00, 0x00, 0x02, 0x00, 0x00, 0x00, 0xf0, 0xff, 0xff, 0xff, 
0x12, 0x00, 0x00, 0x00, 0x02, 0x00, 0x00, 0x00, 0x00, 0x00, 0x00, 0x12, 
0x0c, 0x00, 0x10, 0x00, 0x0f, 0x00, 0x00, 0x00, 0x08, 0x00, 0x04, 0x00, 
0x0c, 0x00, 0x00, 0x00, 0x03, 0x00, 0x00, 0x00, 0x03, 0x00, 0x00, 0x00, 
0x00, 0x00, 0x00, 0x03, };
const unsigned int model_len = 13792;

#endif // MODEL_H
